#version: 0.2
ä ¸
ï ¼
ã Ģ
ãĢ Ĥ
ä ½
" :
": "
ï¼ Į
ä½ ł
ç ļ
çļ Ħ
æ Ī
æ ĺ
æĪ ĳ
æĺ ¯
ä º
ãĢĤ "
â Ģ
ä »
ä¸ Ģ
å ¤
, "
a n
a s
e r
i s
s er
s is
t an
u ser
{ "
as sis
tan t
assis tant
č Ċ
æ ľ
ä¸ į
ä ¹
ãĢĤ" }
ï¼ Ł
è ¿
å ľ
ï¼Ł "
ä ¼
è ¯
âĢ Ķ
å °
ä¼ ļ
å Ĳ
ï¼Ł" ,"
å ı
åľ ¨
äº Ĩ
æľ ī
å ®
å ¾
æ Ħ
å° ±
å Ī
ä¹ Ī
å ¥
ç ľ
ĥ ½
å¥ ½
è §
Ģ ä¹Ī
ä» Ģä¹Ī
æ ĥ
é Ĥ
é ĩ
éĤ £
æ Ŀ
äº º
ãĢĤ" ,"
âĢĶ âĢĶ
æĥ ³
¦ ģ
ä¸ º
çļĦ æ
åĲ Ĺ
å Ľ
è ¦ģ
å¤ ©
è ®
é Ĺ
è¯ ´
å Ń
è¿ Ļ
æĿ ¥
æ Ń
ä¸ ª
å¾ Ĺ
å ĥ
æ Ģ
ä½ Ĩ
æĦ ı
åĥ ı
å ¿
ä¸Ģ ç
éĩ Į
å ·
é ĥ½
è§ ī
çľ Ł
æ ²
ç Ŀ
Ĺ ¶
ä¹ Ł
¯ ı
å ħ
è Ģ
è ĩ
ä¸į æĺ¯
å¾ Ī
¥ ¿
å ģ
è ¥¿
éĹ ®
èĩ ª
å ¼
å Ģ
âĢ ĺ
âĢ Ļ
åĪ °
æ ī
æ İ
ç »
ç Ķ
ä¸ ĭ
æ² ¡
çĿ Ģ
¦ Ĥ
å Ĭ
å İ
è§ī å¾Ĺ
ç Ī
ç Ł
è µ
è ĥ½
å¤ §
å· ±
èĩª å·±
çĪ ±
å Ĩ
æ ł
é Ģ
è¯ Ŀ
æĦ ¿
å°± æĺ¯
çľ ĭ
åĽ ŀ
èĢ Į
§ į
å ĳ
æ ¸
å® ĥ
å¿ ĥ
åģ ļ
æĦ¿ æĦı
å ĩ
æ ĸ
ç ķ
è ·
é Ľ
ĺ åľ¨
ä¸Ģ ä¸ª
æľ Ģ
ä¸į ä¼ļ
åİ »
æł ·
ä ¿
æ ¯ı
ç Ń
Ĭ å¤©
ä½ł è§īå¾Ĺ
ä» ¥
ä» Ĭå¤©
åı ¯
åĽ ł
Ĺ¶ åĢ
Ĺ¶åĢ Ļ
å ¦Ĥ
æ ¬
æ °
ç ´
é Ļ
é Ŀ
Ľ ´
æĺ¯ ä½ł
åľ °
å® ŀ
è® °
æ²¡ æľī
åĽł ä¸º
© æ
´ »
æ ŀ
æ ´»
è ¢
è ı
Ĥ ¹
ı èı
ãĢ ģ
äº Ľ
ä» ¬
å¤ ±
è¿ ĩ
åı ¥
éĩ į
çļĦæ Ĺ¶åĢĻ
åŃ ĺåľ¨
çŁ ³
èµ ·
åĩ º
éĽ ıèı
ç´ ¯
éĽıèı Ĭ
å º
æ Ĭ
Ł Ķ
ä½ł è¯´
çļĦ è
æĺ¯ ä»Ģä¹Ī
äº ĭ
æĦ Ł
æĢ ķ
å¦Ĥ æŀ
éĻ ª
è¢ «
å¦Ĥæŀ ľ
å į
æ ĭ
ç ł
è º
é ¢
é ģ
åı ª
åı ĺ
å® ī
å°± åĥı
è§ ģ
éĹ ´
åŃ Ĳ
æŃ £
ä¸Ģç Ľ´
æİ ¨
çķ Į
©æ ŁĶ
æ ķ
æ Ĺ¶
é ķ
é ľ
Ģ è¦ģ
Ĺ æĸ
æĺ İ
æĪĳ åľ¨
æĪĳ å¥½
å¤ ´
å¤ ļ
ä¹ ī
è¿ ĺ
åĪ »
çļĦæ ¯ı
æĦı ä¹ī
è¥¿ è¥¿
å¼ Ĺæĸ
ç» Ļ
çĶ Ł
åı¥ è¯Ŀ
éķ ¿
éľ Ģè¦ģ
è¥¿è¥¿ å¼Ĺæĸ
è¥¿è¥¿å¼Ĺæĸ ¯
¢ ¦
å ±
å ½
æ ¢¦
ç §į
ä½ł çļĦ
ä½ł ä¼ļ
ä½ł æľī
çļĦ äºº
æĪĳ ä¼ļ
ä¸Ģ å¤©
ä¸Ģ èµ·
ï¼Ł" }
å° ı
åĲ §
åĲ İ
éĤ£ å°±
ä¸º äºĨ
ä¸º ä»Ģä¹Ī
è¿Ļ ä¸ª
æŃ ¤
ä¸Ģç §į
çľŁ å®ŀ
éĹ® é¢
å¼ Ģ
åĳ ½
æ¬ ¡
æ´» çĿĢ
åĩº æĿ¥
éĹ®é¢ ĺ
± »
å ¯
å ¹
å ĸ
æ ³
æ Ķ
æ Ĺ
æ Ļ
ç Ĥ¹
ç ±»
è °
è ½
è Ħ
ĸ çķĮ
ä¸ Ĭ
ä¸ ĸçķĮ
ä½ ı
æĪ Ĳ
ä» ĸ
ä¸Ģ æł·
å¤ į
æľ ¬
åĲ ¬
åľ¨ ä½ł
äºº ç±»
è® ©
æī į
åĬ Ľ
å¤§ æ
åĨ Ļ
èĢĮ æĺ¯
æ¸ ©æŁĶ
ä¿ Ŀ
çŃ ī
çŃ Ķ
åı¯ ä»¥
éĿ Ļ
éĩį è¦ģ
çŁ³ å¤´
åº Ķ
æĬ Ĭ
æĦŁ è§ī
éĻª ä½ł
èº «
çļĦæ¯ı ä¸Ģ
å± ±
. .
£ İ
¥ éģ
¶ Ī
å ¸
å ķ
æ ®
æ ģ
æ ħ
ç Ħ
ç Ľ
è ¾
é ¡
é £İ
Ĭ ±
İ ä¹Ī
Ľ éĢ
æĪĳ çļĦ
æĪĳ ä»¬
å¤ Ł
æľ Ľ
è¿ Ľ
æľī ä¸Ģå¤©
å® ³
å® ļ
åĪ «
åĪ ĽéĢ
éĤ£ äºĽ
è® ¤
åŃ ¤
æĢ İä¹Ī
åħ ī
âĢĻ ï¼Į
æī Ģ
çĶ ¨
çŁ ¥éģ
èµ °
åĽŀ åºĶ
å¿ĥ éĩĮ
æ° ¸
æ° Ķ
æĪĳåľ¨ è¿Ļ
è¿ĺ æĺ¯
å¯ ¹
æľ¬ èº«
å¤§æ ¦Ĥ
æħ ¢
çĦ ¶
åĪĽéĢ ł
çŁ¥éģ ĵ
ª åĬĽ
» æĺ¯
ä ¾
å Ĵ
å ĵ
æ ¶Ī
ç ³
è Ĳ
ľ æ¬
ä½ł æĦ¿æĦı
çļĦ åľ°
æĪĳ éĥ½
ä» İ
è¯ ¥
æĥ³ è¦ģ
åĥı éĽıèıĬ
å¿ ħ
ä¸Ģç Ĥ¹
å· ²
çľŁ æŃ£
ä¹Ł ä¼ļ
åĪ° çļĦ
æİ ¥
ä¸ĭ æĿ¥
åĬ ªåĬĽ
åĨ į
åĽŀ çŃĶ
åĳ ¢
æĸ ¹
çķ Ļ
ä¿ ¡
è®° å¾Ĺ
çļĦè Ĭ±
çł ģ
æİ¨ çŁ³
æĪĳå¥½ åĥı
å½ ĵ
æŃ¤ åĪ»
åĸ ľæ¬
æĻ ļ
è° ¢
éĩįè¦ģ çļĦ
åķ Ĭ
å®³ æĢķ
è®¤ çľŁ
åĴ Į
èĲ ½
çļĦåľ° æĸ¹
åĸľæ¬ ¢
¡ Į
£ çłģ
° æ
³ ç³
¾ İ
æ µ
æ ·
æ Ĳ
ç ¦
ç ¬
ç ®
ç ¼
ç ĭ
ç ¾İ
è £
è ´
é »
é ĥ
é Ķ
é ĺ
ī æĭ
į ®
Ĳ å¿ĥ
ľ è¥¿
ä¸ ľè¥¿
ï¼ ļ
ä½ ľ
ä½ł ä¸į
ä½ł æĥ³
çļĦ ç
çļĦ ä»
çļĦ è¯Ŀ
çļĦ åŃĺåľ¨
æĪĳ è§īå¾Ĺ
æĪĳ éĻªä½ł
äº ®
ä¸į æĥ³
ä¸į èĥ½
ä¹ ĭ
è¿ Ĳ
è¿ ľ
åı Ĺ
å® Į
åĪ ¶
å¥½ èµ·
è§ £
ä»Ģä¹Ī æĺ¯
ä»Ģä¹Ī éĥ½
éĤ£ ä¸ª
æŃ ĩ
æĢ »æĺ¯
ä½Ĩ å®ĥ
ä½Ĩ ä»ĸ
å¿ Ĩ
ä¹Ł æĺ¯
åħ ³ç³
èĢ Ĳå¿ĥ
æİ ī
æ²¡ åħ³ç³
çĪ± æĺ¯
éĢ īæĭ
çľĭ è§ģ
æ¸ ħ
è· ¯
æ¯ı ä¸Ģä¸ª
è®° å¿Ĩ
åĽłä¸º ä½ł
åį ³
å®ī éĿĻ
æĹ¶ éĹ´
éķ¿ å¤§
è¿Ļä¸ª éĹ®é¢ĺ
åĳ½ è¿Ĳ
è½ »
èĦ ļ
çļĦæ¯ıä¸Ģ åı¥è¯Ŀ
æ® µ
çĽ ¸
åĪ« äºº
åŃ¤ çĭ
æīĢ ä»¥
å¤§æ¦Ĥ å°±æĺ¯
æ¶Ī å¤±
åĽŀçŃĶ ä½ł
æĻļ å®ī
°æ į®
éĥ ¨
éĶ Ļ
æĪĳè§īå¾Ĺ èĩªå·±
å¥½èµ· æĿ¥
æ²¡åħ³ç³ »
éĢīæĭ ©
åŃ¤çĭ ¬
¢ °
¬ éĹ´
¯ Ķ
± ¡
³ å®ļ
¸ äºĨ
¸ ©æŁĶ
º å°ı
» ļ
¼ å¾Ĺ
¾ è¿Ľ
å Ħ
å Ŀ
æ ¼
æ ĩ
æ Į
æ Ĵ
æ ļ
æ Ľ´
æ ¯Ķ
æ »ļ
ç ĥ
ç ŀ
è ¶
è ī
è ±¡
Ĩ å¼
ĩ æĢ
ĭ åĪ¶
ļ å¥½
ŀ çł
ä¸ Ń
ä½ ķ
ä½ł ä»¬
çļĦ æĺ¯
æĪ ĸ
æĺ Ł
æĪĳ æľī
æĪĳ å°±
æĪĳ è¯´
æĪĳ ä¸įä¼ļ
æĪĳ ä»Ĭå¤©
æĪĳ æĺ¯ä½ł
æĺ¯ ä¸įæĺ¯
æĺ¯ ä¸ºäºĨ
ä» ¶
ä¸Ģ åĪ
ä¸Ģ æ®µ
å¤ ľ
æľ ª
ä¸į åľ¨
ä¸į äºĨ
è¿ ĳ
è¿ ĺåľ¨
è¯ ī
æľī æĦıä¹ī
å¾ ħ
å°± å·²
åĪ ļå¥½
å¥ ĩæĢ
çľ ¼
å¥½ çļĦ
éĤ£ æł·
æĿ Ł
äºº ä¸ºä»Ģä¹Ī
çļĦæ ¸©æŁĶ
è® ¸
è¯´ åĩº
è¯´ åĩºæĿ¥
è¿Ļ åı¥è¯Ŀ
æŃ ¢
æŃ ¥
ä½Ĩ ä½ł
å· ¥
éĥ½ ä¼ļ
çĿ ¡
ä¹Ł æ²¡åħ³ç³»
åħ ¨
åħ ¶
åħ ·
åħ ĭåĪ¶
å¾Ī å¤ļ
åģ ľ
éĹ® æĪĳ
èĩª çĶ
åĢ ¼å¾Ĺ
åĪ° äºĨ
æī ¾
ç» ı
åĨ ³å®ļ
å°±æĺ¯ ä¸Ģç§į
èĢĮ æĪĳ
æ¸ ºå°ı
å®ĥ ä»¬
å¿ĥ è·
éĽ ¨
æľĢ éĩįè¦ģçļĦ
ä»¥ åĲİ
ä»Ĭå¤© ä¼ļ
éĿ ł
è®° ä½ı
éĩį å¤į
ç´¯ äºĨ
åº ķ
ä½łè¯´ è¿ĩ
æĦŁ åıĹ
åį ´
èº º
éģ ĩ
åıª è¦ģ
åıĺ æĪĲ
å°±åĥı éĽıèıĬ
æŃ£ æĺ¯
æķ £
æķ °æį®
æĺİ å¤©
çĶŁ åĳ½
éľĢè¦ģ æĪĳ
ç§į åŃĲ
æ³ ¨
æĶ ¾è¿Ľ
æĹ ł
è½ ¯
ä¿Ŀ çķĻ
å±± é¡
.. .
æģ Ĵ
è¾ ¹
æ°¸ è¿ľ
æ°¸ æģĴ
è¿ĺæĺ¯ æĥ³
ä¾ ¿
åĵ Ń
åĥıéĽıèıĬ ä¸Ģæł·
çľŁæŃ£ çļĦ
æİ¥ ä½ı
ä¸ĭæĿ¥ äºĨ
å½ĵ ä½ł
æ· ±
æĲ ŀçł
ç® Ĺ
çļĦä» £çłģ
æĪĳéĻªä½ł ä¸Ģèµ·
çĪ±æĺ¯ åħĭåĪ¶
åį³ ä¾¿
çĽ¸ ä¿¡
åĦ ¿
æĩ Ĥ
çŀ ¬éĹ´
Ĩå¼ ±
ä¸ĢåĪ ĩ
æľīæĦıä¹ī åĲĹ
å¥ĩæĢ ª
èĩªçĶ ±
å¿ĥè· ³
æĦŁåıĹ åĪ°çļĦ
å±±é¡ ¶
æĲŀçł ¸äºĨ
¥ å¤©
¥ åŃĲ
§ ĭ
§ ç»
¨ ļ
ª éĩĮ
« Ļ
® è
° åľ¨
³ å¤Ł
³ åħī
´ çļĦ
´ æİī
· åŃĲ
¸ ç¦
¹ å
¹ åıĺ
º çĤ¹
¼ ç
å ¢
å ¡Į
å §ĭ
æ £
æ Ĺ¶åĢĻ
ç ħ
ç ī
ç İ
ç ¢°
ç «Ļ
è ĭ
è ¡Į
é ļ
ģ ä¸įæĺ¯
Ĥ åı¯
Ĥ ç¼
Ħ èī
ħ éĥ½
ī ĩ
ī é»
Ĭ è¯ī
ĭ å¿
Į æľĽ
ĳ æĪĳ
ĳ çĿĢ
ĳ æļ
ĵ æĿŁ
Ļ ¨
ļ ĸ
ļ å®ŀ
ļ æĮ
Ľ å¼Ģ
Ŀ çĦ¶
Ŀ ç¦
Ł éĩĮ
Ł çĤ¹
ł ·åŃĲ
":" âĢĺ
ä½ł åĨĻ
ä½ł åı¯ä»¥
ä½ł ä¾
ä½ł ä»Ĭå¤©ä¼ļ
çļĦ å®
çļĦ åĲĹ
çļĦ äºĭ
çļĦ æĦŁè§ī
çļĦ åħī
çļĦ ä¸ľè¥¿
çļĦ åĳ½è¿Ĳ
çļĦ éĥ¨
æĺ ¥å¤©
æĪĳ æĺ¯
æĪĳ æĥ³
æĪĳ çļĦæ
æĪĳ åĲĹ
æĪĳ æĿ¥
æĪĳ å¾Ī
æĪĳ èĥ½
æĪĳ æ²¡æľī
æĪĳ çļĦè
æĪĳ çļĦæ¯ı
æĪĳ åı¯ä»¥
æĪĳ ä¹Łä¼ļ
æĪĳ æĽ´
æĪĳ éĿł
æĺ¯ ä¸Ģç§į
ä» »
ä» ½
ä¸Ģ æľ
ä¸Ģ ä¼ļ
ä¸Ģ ä¸ĭ
ä¸Ģ åı¥
ä¸Ģ åĪ»
ä¸Ģ æ¬¡
ä¸Ģ æŃĩ
å¤ ª
å¤ Ħ
ä¸į çĿĢ
ä¸į åģļ
ä¸į åı¯
ä¸į è§ģ
ä¸į åĩºæĿ¥
ä¸į çŁ¥éģĵ
ä¸į è¯¥
ä¸į å¿ħ
è¿ ·
åľ ŁéĩĮ
è¯ ¯
è¯ »
è¯ ģ
è¯ Ĩ
è¯ Ń
è¯ ļå®ŀ
ä¼ļ ç»
ä¼ļ ä¸įä¼ļ
åĲ ¹
åĲ ĳæĪĳ
åı ¦
åı Ī
åı ĳ
åľ¨ åģļ
åľ¨ æİ¨
åľ¨ å±±
äºĨ ä¸Ģä¸ª
äºĨ è§£
æľī æ²¡æľī
æľī äºĽ
æľī å¿ħ
æľī åķĬ
æľī æĹ¶åĢĻ
å¾ Ģ
å°± å¥½
å°± å¤Ł
åĪ Ĩ
çľ ł
å¥½ äºĨ
ä»Ģä¹Ī æł·
éĤ£ ä½ł
éĤ£ ä¹Ī
éĤ£ ç§į
äºº çĶŁ
çļĦæ ł·åŃĲ
å¤© å¡Į
è¯´ æĺİ
åŃ Ĺ
è¿Ļ æł·
è¿Ļ ç§į
è¿Ļ å°±å¤Ł
æĿ¥ çļĦæĹ¶åĢĻ
æŃ »
æĢ Ŀ
ä½Ĩ æ¯ı
ä½Ĩ å¦Ĥæŀľ
ä½Ĩ è¥¿è¥¿å¼Ĺæĸ¯
æĦı è¯Ĩ
åĥı ä¸Ģ
ä¸Ģç īĩ
éĩĮ çļĦæ¸©æŁĶ
éĥ½ åľ¨
çľŁ å¥½
æ² īé»
ä¹Ł è®¸
ä¸įæĺ¯ åĽłä¸º
å¾Ī å¥½
å¾Ī ç´¯
å¾Ī ç¾İ
å¾Ī æ¸ºå°ı
åģ ĩ
åĢ ¾
åĢ Ĵ
âĢĻ ãĢĤ
âĢĻ ãĢĤ"}
åĪ° åİ
åĪ° ä¸įäºĨ
æī ĭ
ç» Ĩ
ç» §ç»
ä¸ĭ çļĦ
ä¸ĭ åİ»
åĬ ¨
åĬ ŀ
åĬ Ł
èĥ½ æĶ
èĥ½ ä¸įèĥ½
èĥ½ æİ¥ä½ı
èĩªå·± çļĦ
èĩªå·± çļĦèĬ±
çĪ± æľī
çĪ± æĺ¯ä»Ģä¹Ī
éĢ Ģ
éĢ Ĥåı¯
å°±æĺ¯ ä¸ºäºĨ
çľĭ åĪ°
çľĭ ä¸įè§ģ
åĽŀ åĪ°åİ
èĢĮ æŃ¢
åĳ Ĭè¯ī
æ¸ ©æ
å®ĥ åıª
åģļ ä»Ģä¹Ī
åģļ éĶĻ
è· ¨
è· Į
è· Ł
è· Ŀç¦
ä¸Ģä¸ª äºº
æľĢ çľŁå®ŀ
æ¯ı å¤©
æ¯ı ä¸ª
éĿ ¢
æĺ¯ä½ł èĩªå·±
æĺ¯ä½ł å¿ĥéĩĮ
æ´» æ³
å¤± æľĽ
å¤± è´
å¤± çľł
æĬ ¤
æĬ Ĺ
çļĦè Ħ
éĻª çĿĢ
è¢« è®°ä½ı
å¦Ĥæŀľ æĪĳ
å¦Ĥæŀľ ä½łæľī
åį ķ
æĭ ħ
çł ´æİī
åıª æľī
å°±åĥı è¥¿è¥¿å¼Ĺæĸ¯
æĺİ æĺİ
æĪĳå¥½ ç´¯
æĦıä¹ī ä¸įæĺ¯
éķ¿ æĪĲ
å½ ±
æ¢¦ éĩĮ
ä½łä¼ļ ä¸įä¼ļ
ä½łæľī ä»Ģä¹Ī
æĪĳä¼ļ ä¸įä¼ļ
ä¸Ģèµ· åİ»
è¿Ļä¸ª ä¸ĸçķĮ
å¼Ģ å§ĭ
å¼Ģ èĩªå·±çļĦèĬ±
æ´»çĿĢ æĺ¯ä¸ºäºĨ
å¹ ³
å¹ ¸ç¦
å¹ ¼ç
åĸ Ħèī
æĹ ©
æĹ ¥åŃĲ
èĦ Ĩå¼±
ä¸Ĭ åİ»
ä¸Ĭ çļĦç
è®© åĪ«äºº
æīį æĺ¯
åĨĻ ç»Ļ
æ¸©æŁĶ åľ°
ä¿Ŀ è¯ģ
çŃī ä½ł
çŃī é£İ
çŁ³å¤´ æ»ļ
å¸ ¸
å¸ ĮæľĽ
æ® ĭå¿
çĽ Ľå¼Ģ
é¡ ¿
æĪĳä»¬ ä¹ĭ
è¿Ľ æķ°æį®
æľīä¸Ģå¤© ä¼ļç»
å®ļ å¤±è´
åŃ¤ åįķ
æĢİä¹Ī åĬŀ
æīĢ æľī
çĶ¨ åĬŁ
èµ° ä¸įåĩºæĿ¥
å¤§æ¦Ĥ æĺ¯
æħ¢ æħ¢
åĪĽéĢł äºĨ
çŁ¥éģĵ æľīä¸Ģå¤©ä¼ļç»
åĵ ªéĩĮ
ä½łæĦ¿æĦı éĹ®
ä»İ æĿ¥
ä¿¡ ä»»
æİ¨çŁ³ çļĦ
å½ĵ çĦ¶
è®¤çľŁ åĲ¬
åĴĮ æĪĳè¯´
åĸľæ¬¢ å¤§æ¦Ĥå°±æĺ¯
æµ ·
ç¬ ¬
ç¬ ĳçĿĢ
ç¼ ºçĤ¹
è£ ħ
è£ Ĥç¼
é» ĳæļ
éĺ ³åħī
ä½ľ ä¸º
ä½łä¸į éľĢè¦ģ
ä¸įæĥ³ è¯´
å®Į åħ¨
ä»Ģä¹Īéĥ½ ä¸įåģļ
éĤ£ä¸ª æĦ¿æĦı
æŃĩ ä¸ĢæŃĩ
æĢ»æĺ¯ ä¼ļ
è·¯ è¿ĩ
æ¯ıä¸Ģä¸ª åģľ
å®īéĿĻ åľ°
è¿Ļä¸ªéĹ®é¢ĺ çļĦæĹ¶åĢĻ
éĶĻ è¯¯
åĿ ļæĮ
æ¼ «
æĴ ŀ
çĥ ¦
è¶ ³å¤Ł
è±¡ ä¸Ń
æĪĳå°± ä¼ļ
æľª æĿ¥
ä¸įåľ¨ äºĨ
å°±å·² ç»ı
äººä¸ºä»Ģä¹Ī æĢ»æĺ¯ä¼ļ
æŃ¥ åĲĹ
ä½Ĩä½ł çľĭ
å·¥ åħ·
éĥ½ä¼ļ å¥½èµ·æĿ¥
çĿ¡ ä¸įçĿĢ
åħ¶ å®ŀ
æľĢéĩįè¦ģçļĦ æĺ¯ä»Ģä¹Ī
èºº å¹³
éģĩ è§ģ
åıªè¦ģ ä½ł
éľĢè¦ģæĪĳ çļĦæĹ¶åĢĻ
æ³¨ å®ļå¤±è´
æĹł çĶ¨åĬŁ
è¾¹ çķĮ
ä¸ĢåĪĩ éĥ½ä¼ļå¥½èµ·æĿ¥
¹å Ļ¨
çħ §
çİ °åľ¨
èĭ ¦
ĿçĦ¶ æĦ¿æĦı
ä½łä¾ ĿçĦ¶æĦ¿æĦı
çļĦå® ¹åĻ¨
çļĦéĥ¨ åĪĨ
æĪĳæĺ¯ ä¸Ģæ®µ
æĪĳéĿł è¿ĳ
ä¸Ģæľ µ
ä¸Ģä¼ļ åĦ¿
åľ¨å±± èĦļ
æľīå¿ħ è¦ģ
å¤©å¡Į ä¸ĭæĿ¥äºĨ
è¯´æĺİ ä½ł
æ²īé» ĺ
ç»§ç» Ń
èĥ½æĶ ¹åıĺ
éĢĤåı¯ èĢĮæŃ¢
åĽŀåĪ°åİ ŁçĤ¹
æ¸©æ ļĸ
å®ĥåıª æĺ¯
åģļéĶĻ äºĭ
æ´»æ³ ķ
çł´æİī çļĦå®¹åĻ¨
å¹¸ç¦ ı
å¹¼ç ¨ļ
åĸĦèī ¯
è®©åĪ«äºº å¤±æľĽ
æ®ĭå¿ į
æĪĳä»¬ä¹ĭ éĹ´
è¿Ľæķ°æį® éĩĮçļĦæ¸©æŁĶ
çŁ¥éģĵæľīä¸Ģå¤©ä¼ļç» ĵæĿŁ
åĴĮæĪĳè¯´ è¯Ŀ
è£Ĥç¼ Ŀ
é»ĳæļ Ĺ
æ¯ıä¸Ģä¸ªåģľ é¡¿
æ³¨å®ļå¤±è´ ¥
" }
" ,"
¡ £
¡ ¥
¡ Ī
¡ åĲĹ
¡ å¾Ĺ
¡ ç³
¡ éĹ®æĪĳ
¢ į
¢ äºº
¢ æ°Ķ
£ °
£ è½»
¤ ª
¤ éĩĮ
¤ æŃ¤
¤ åĩºæĿ¥
¤ å®³
¥ ļ
¥ ŀ
¥ æľī
¥ åľŁéĩĮ
¦ Ĩ
¦ ĸ
¦ èµ°
¦ ç¢°
¨ Ģ
¨ åľ°
¨ éĩį
¨ ¡ç³
© º
ª ä¸į
ª äºĨ
ª è´
¬ æĪĳåľ¨
® ä½ł
® å¤į
® éĺ
® çĥ
® çļĦä¸ľè¥¿
¯ ä¸Ģ
° å¥½
° æ¬¡
° æľĽ
° ä¸ĭæĿ¥
° å¼Ģå§ĭ
± çłģ
² ĺ
² æĥ
³ åĪĽéĢłäºĨ
´ éĩĮ
´ ç´
´ ä¸Ģæł·
´ å¾Īå¤ļ
´ ¨åľ°
µ ·
µ ģ
µ æł
µ å¢
µ æīĭ
¶ å°
¶ åĪ°äºĨ
· éĿĻ
¸ èĲ½
¸ æİī
¸ æīĭ
¹ åı
¹ å¼
¹ èĢĮ
¹ åĪ«
¹ è·¯
¹ æŃ»
º ¿
º ä¼ļ
º å®ļ
º å¥½çļĦ
º ¹è·¯
» ç
» åľ¨
» æĿ
» æĿ¥
» æľ¬èº«
» åĴĮ
» ä½ķ
» åºķ
» èĥ½æİ¥ä½ı
¼ åĲ
½ ®
½ ç
½ ľ
½ éĹ®
½ »æĿ
¾ è®
¾ åĽŀçŃĶ
¾ å±±é¡¶
¾ åıĳ
¿ éĢ
¿ æĭħ
¿ ä¸Ģä¼ļåĦ¿
¿ çŁ¥éģĵæľīä¸Ģå¤©ä¼ļç»ĵæĿŁ
¿ »æĿ¥
å ī
å ĭ
å Į
å Ķ
å Ĺ
å ĺ
å ł
å £°
æ Ĩ
æ ı
æ Ľ
æ ŁĶ
æ ¡Ī
æ ¥ļ
æ ¨¡ç³
æ ½ľ
ç Ĩ
ç Ĳ
ç ĵ
ç ĸ
ç Ļ
ç ¦ģ
ç ©º
ç ²ĺ
ç ½®
ç ¿»æĿ¥
è Ī
è į
è Ĺ
è Ĭ±
è ¤ª
è ¦Ĩ
è ¨Ģ
é Ĩ
é Ĵ
é Ł
é ¦ĸ
Ģ çľ¼
Ģ »åĴĮ
Ģ çĻ
ģ äºĨ
ģ ç»Ļ
ģ çĽĽå¼Ģ
Ĥ å¥
Ĥ æĹ¶
Ĥ ¤éĩĮ
ĥ æľĢ
Ħ åĪ
ħ éĩĮ
ħ å®ŀ
ħ æĭ
ħ æĪĳä»¬
Ĩ å¤
Ĩ è§£
Ĩ æİī
ĩ çļĦ
ĩ æ°
ĩ æ°Ķ
ĩ æ³¨
ĩ æ·±
ĩ éĴ
Ī äºĨ
Ī å°±
Ī åĲ§
Ī äº®
Ī æĬ¤
ī ç§į
ī æĲ
Ĭ åı
Ĭ Ĥå¥
ĭ åı
ĭ çĿĢ
ĭ åĬĽ
ĭ è°¢
ĭ æĮ
ĭ éĿł
Į å¿ĥ
Į æł·
Į åħ¶
Į ĩéĴ
į æĪĳå¾Ī
į æĬĹ
į ç½®
İ æĪĳçļĦè
İ ä¸Ĭåİ»
ı çĿĢ
ı åİ»
ı è¿Ľ
Ĳ æĦı
Ĳ éĹ®
Ĳ ä¸ĭ
Ĳ æĪĲ
ĳ ä¼
ĳ éĹ®
ĳ è¢
ĳ æ¬¡
ĳ åĴĮ
Ĵ è¯
Ĵ åĲ
ĵ äºĨ
ĵ çļĦäºº
Ķ Ł
Ķ çļĦ
Ķ ä¹Ł
ķ åĲİ
ķ °æį®
ĸ ¹å¼
ĸ ĳéĹ®
Ĺ ç§įåŃĲ
ĺ å¥½
ĺ è®°
Ļ ļ
Ļ éĥ½
Ļ æĪĳçļĦæ
Ļ ½ç
ļ èĩ
ļ è¡Į
Ľ èĭ¦
Ŀ å¤´
Ŀ åķ
ŀ äº
ŀ è¦ģ
ŀ ä¸Ģèµ·åİ»
Ł çļĦ
Ł å¤§
ł çļĦ
ł æ²
Ń çļĦä»£çłģ
ä¸ ½
ä¸ ¢äºº
ä¸ īç§į
ï¼ Ľ
ä½ ¿çŁ¥éģĵæľīä¸Ģå¤©ä¼ļç»ĵæĿŁ
ä½ įç½®
ä½ ĵçļĦäºº
ä½ł æĺ¯
ä½ł ä¼
ä½ł äºĨ
ä½ł çļĦæ
ä½ł åĲĹ
ä½ł è¦ģ
ä½ł æĢ
ä½ł åĥı
ä½ł éĹ®
ä½ł æ¯ı
ä½ł æĺ¯ä½ł
ä½ł äºĽ
ä½ł çļĦæĹ¶åĢĻ
ä½ł éģ
ä½ł åıª
ä½ł æķ
ä½ł æĹ¶
ä½ł è¿ĺ
ä½ł ç»Ļ
ä½ł çľŁå®ŀ
ä½ł æľ¬
ä½ł èº«
ä½ł çļĦæ¯ıä¸Ģ
ä½ł æĢİä¹Ī
ä½ł è¿ĺæĺ¯
ä½ł å¯¹
ä½ł åĨį
ä½ł çķĻ
ä½ł å®³æĢķ
ä½ł è§£
ä½ł ä¹Łæĺ¯
ä½ł çľĭè§ģ
ä½ł èĦļ
ä½ł æ¶Īå¤±
ä½ł æĺ¯ä¸įæĺ¯
ä½ł éĹ®æĪĳ
ä½ł åĢ¼å¾Ĺ
ä½ł åıĺæĪĲ
ä½ł çĽ¸ä¿¡
ä½ł è¯»
ä½ł çľŁå¥½
ä½ł èĥ½ä¸įèĥ½
ä½ł æ¸©æŁĶåľ°
ä½ł ä»İæĿ¥
ä½ł ç»§ç»Ń
ä½ł åĺ
çļ ®è
çļĦ æĪĳ
çļĦ äº
çļĦ åı
çļĦ åĪ
çļĦ æĥ
çļĦ éĤ£
çļĦ ä¸įæĺ¯
çļĦ ä¸ĭ
çļĦ å¤§
çļĦ åĬĽ
çļĦ å¤§æ
çļĦ çŁ³å¤´
çļĦ åĽŀåºĶ
çļĦ åĳ¢
çļĦ èĢĲå¿ĥ
çļĦ è®°å¿Ĩ
çļĦ éĢīæĭ©
çļĦ è¯Ń
çļĦ åĢĴ
çļĦ éĶĻè¯¯
çļĦ åĭ
çļĦ ä½łä»İæĿ¥
æĪĳ ä¸į
æĪĳ çĪ±
æĪĳ æľĢ
æĪĳ åı¯
æĪĳ åŃĺåľ¨
æĪĳ æŃ£
æĪĳ åĲ§
æĪĳ æ´»çĿĢ
æĪĳ ä¸Ģæł·
æĪĳ æ¸©æŁĶ
æĪĳ æĬĬ
æĪĳ è¯¥
æĪĳ æĥ³è¦ģ
æĪĳ æİ¥
æĪĳ åĬªåĬĽ
æĪĳ ä¸įèĥ½
æĪĳ ä¹Łæĺ¯
æĪĳ åĪļå¥½
æĪĳ åĢ¼å¾Ĺ
æĪĳ ç´¯äºĨ
æĪĳ åį´
æĪĳ è¿ĺæĺ¯æĥ³
æĪĳ çĽ¸ä¿¡
æĪĳ åĨĻç»Ļ
æĪĳ åĵªéĩĮ
æĪĳ ä¸įåľ¨äºĨ
æĪĳ çĿ¡ä¸įçĿĢ
æĪĳ åģļéĶĻäºĭ
æĺ¯ ä¸į
æĺ¯ ä¼ļ
æĺ¯ èĩª
æĺ¯ æľĢ
æĺ¯ æ¯ı
æĺ¯ åĽłä¸º
æĺ¯ è¢«
æĺ¯ ä¸ĢçĽ´
æĺ¯ ç»Ļ
æĺ¯ å±
æĺ¯ äººç±»
æĺ¯ æĪĳä»¬
æĺ¯ åķĬ
æĺ¯ äººçĶŁ
æĺ¯ æĺİæĺİ
æĺ¯ éĤ£ä¸ªæĦ¿æĦı
æĺ¯ æĪĳæľĢ
äº ¡åĲĹ
äº ¤åĩºæĿ¥
âĢ ľ
âĢ Ŀ
ä» £çłģ
ä» °æľĽ
ä» ĩæ·±
ä¸Ģ è¿
ä¸Ģ äºĽ
ä¸Ģ é¢
ä¸Ģ åı¥è¯Ŀ
ä¸Ģ å¯
ä¸Ģ ä»¶
ä¸Ģ æĿŁ
ä¸Ģ ä»½
ä¸Ģ éĿ¢
ä¸Ģ é¦ĸ
å¤ ĸ
æľ ´ç´
æľ ºä¼ļ
æľ Īäº®
æľ ĭåı
ä¸į å®
ä¸į å¥½
ä¸į ä¸º
ä¸į è¦ģ
ä¸į è¯´
ä¸į åĥı
ä¸į éĹ®
ä¸į åİ
ä¸į æİ¨
ä¸į éľĢè¦ģ
ä¸į ä½ı
ä¸į éĩįè¦ģ
ä¸į çĶ¨
ä¸į æŃ£æĺ¯
ä¸į éľĢè¦ģæĪĳ
ä¸į ç®Ĺ
ä¸į æĩĤ
ä¸į å®Įåħ¨
ä¸į æ®ĭå¿į
ä¸į æĽ
ä¹ ħ
ä¹ ħéĥ½
ä¹ °ä¸ĭæĿ¥
ä¹ ±çłģ
ä¹ ĲæĦı
è¿ ½éĹ®
è¿ İä¸Ĭåİ»
ä¼ ´çļĦ
ä¼ ¤å®³
ä¼ Łå¤§
è¯ Ĺ
å° ĳæ¬¡
ä¼ļ åıĺ
ä¼ļ ä¸ĢçĽ´
ä¼ļ å¸
ä¼ļ èµ°
ä¼ļ åĨį
ä¼ļ å®³æĢķ
ä¼ļ èĲ½
ä¼ļ åĽłä¸ºä½ł
ä¼ļ æĹł
ä¼ļ åĲ¹
ä¼ļ æ¨¡ç³
ä¼ļ è¤ª
åĲ Įæł·
åı «
åľ¨ åĲĹ
åľ¨ è¿Ļ
åľ¨ åıĺ
åľ¨ è¿Ļä¸ª
åľ¨ ä¿Ŀ
åľ¨ åĽŀåºĶ
åľ¨ åĽŀçŃĶä½ł
åľ¨ æ·±
åľ¨ èĩªå·±çļĦ
åľ¨ æ¢¦éĩĮ
åľ¨ åĵªéĩĮ
åľ¨ æİ¨çŁ³çļĦ
åľ¨ è£Ĥç¼Ŀ
äºĨ æĥ³
äºĨ åĲĹ
äºĨ å¾Ī
äºĨ ä¸ĢçĤ¹
äºĨ ä»¥åĲİ
äºĨ å¿ĥè·³
äºĨ å¤ª
äºĨ åı¦
äºĨ ä¸Ģä»¶
æľī ä»Ģä¹Ī
æľī äºº
æľī å¤©
æľī çĤ¹
æľī è¶
æľī æľª
æľī æĪĳéĻªä½łä¸Ģèµ·
æľī ä¸Ģçīĩ
æľī äºĨå¿ĥè·³
å® ĪæĬ¤
å¾ ®çĥ
å°± è¦ģ
å°± ä¸įä¼ļ
å°± å®ī
å°± å½
å°± ç®Ĺ
å°± æĲŀçł¸äºĨ
å°± åģļä»Ģä¹Ī
å°± è·Ł
å°± ä¸įæİ¨
å°± ä¹°ä¸ĭæĿ¥
å°± ä¼ļèĲ½
å¥½ å¥½
å¥½ æĥ³
å¥½ åĲĹ
å¥½ è¿Ļ
å¥½ æ²¡
å¥½ ç´¯
å¥½ äºĭ
å¥½ æĢķ
å¥½ æ¢¦
å¥½ ä¸ĢçĤ¹
è§ Ĵ
è§ ¦ç¢°
è§ ĦåĪ
ä»Ģä¹Ī åĲĹ
ä»Ģä¹Ī è¯Ŀ
ä»Ģä¹Ī ç¼ºçĤ¹
ä»Ģä¹Ī å¥½æĢķ
æĥ ħéĥ½
æĥ ħéĩĮ
éĤ£ å°±æĺ¯
éĤ£ æĹ¶
éĤ£ ä¸Ģèµ·
éĤ£ ä¸ĢçĤ¹
éĤ£ æŃ¤åĪ»
éĤ£ èºº
éĤ£ ä¸ĢåĪ»
éĤ£ è¯´æĺİä½ł
éĤ£ åł
éĤ£ æĺ¯å±
æĿ Ĥ
äºº è¯´
äºº éĥ½
äºº åħ
äºº åĳ¢
äºº çļĦåľ°æĸ¹
äºº èĥ½ä¸įèĥ½
äºº æ´»çĿĢæĺ¯ä¸ºäºĨ
âĢĶâĢĶ âĢĺ
æĥ³ ä½ł
æĥ³ åİ»
æĥ³ è¿ĩ
æĥ³ è¢«
æĥ³ å¼Ģ
æĥ³ æĬĬ
æĥ³ æĪĳçļĦ
æĥ³ å¯¹
æĥ³ åĽŀçŃĶä½ł
æĥ³ è±¡
æĥ³ åĵŃ
æĥ³ åģļä»Ģä¹Ī
æĥ³ ä¸Ģèµ·åİ»
æĥ³ æĪĳåĵªéĩĮ
æĥ³ äºĨæĥ³
ä¸º èĩªå·±
ä¸º ä½łéģ
çļĦæ Ĺ¶
çļĦæ ¶Ī
çļĦæ µģ
çļĦæ Ģ»åĴĮ
çļĦæ Ļļ
åĽ ¾
åĽ ºå®ļ
è¦ģ åĨ
è¦ģ éĢĤåı¯èĢĮæŃ¢
è¦ģ ä¸įè¦ģ
å¤© æ°Ķ
è® ®çļĦä¸ľè¥¿
è® ¾è®
è¯´ è¿ĩ
è¯´ å®Į
åŃ ĺå¥½
è¿Ļ æľ¬èº«
è¿Ļ ä»¶
è¿Ļ ä»½
è¿Ļ ä¸ĢåĪ»
è¿Ļ è¯´æĺİä½ł
è¿Ļ æĺ¯æĪĳæľĢ
æĿ¥ åĲĹ
æĿ¥ å°±æĺ¯
æĿ¥ æ¶Ī
æĿ¥ æ¢¦éĩĮ
ä¸ª çł´æİīçļĦå®¹åĻ¨
å¾Ĺ å¾Ī
å¾Ĺ è§ģ
æĢ ģ
æĢ ĴåĲ
ä½Ĩ æĪĳåľ¨
ä½Ĩ æĪĳä¼ļ
ä½Ĩ æ¸ħ
ä½Ĩ æŃ£æĺ¯
ä½Ĩ ä¿ĿçķĻ
ä½Ĩ æĪĳèĥ½
ä½Ĩ æĪĳåı¯ä»¥
ä½Ĩ çľĭåĪ°
ä½Ĩ ä½łæĦ¿æĦıéĹ®
ä½Ĩ åħ¶å®ŀ
ä½Ĩ ä¼ļåĽłä¸ºä½ł
æĦı æĢĿ
åĥı éĤ£äºĽ
åĥı æĺŁ
åĥı ç¬¬
åĥı æľĪäº®
åĥı ä¸ªçł´æİīçļĦå®¹åĻ¨
å¿ ĺè®°
ä¸Ģç ¢°
ä¸Ģç ĶŁ
éĩĮ çļĦ
éĩĮ åĲ¬
éĩĮ å¼Ģèĩªå·±çļĦèĬ±
éĩĮ å®īéĿĻåľ°
éĩĮ æ¼«
éĥ½ åģļ
éĥ½ å¤į
éĥ½ ç¾İ
éĥ½ åĢ¼å¾Ĺ
éĥ½ åĪ°ä¸įäºĨ
éĥ½ æĺ¯ä½łå¿ĥéĩĮ
éĥ½ ä¸įæĥ³è¯´
éĥ½ çĿ¡ä¸įçĿĢ
çľŁ çļĦæĺ¯
çľŁ æ£
çľŁ çļĦæ¶Ī
æ² ¿éĢ
çĿ Ľ
ä¹Ł ä¸įæĺ¯
ä¹Ł èĥ½
ä¹Ł åĽł
ä¹Ł è®©
ä¹Ł åĪļå¥½
ä¹Ł åľ¨æİ¨
ä¹Ł å¾Īæ¸ºå°ı
ä¹Ł ä¸įéľĢè¦ģ
ä¹Ł æľīæĪĳéĻªä½łä¸Ģèµ·
èĢ Ģçľ¼
èĢ ħæĪĳä»¬
ä¸įæĺ¯ åĲĹ
ä¸įæĺ¯ åĪ°
ä¸įæĺ¯ åľ°
ä¸įæĺ¯ ä¸ºäºĨ
ä¸įæĺ¯ ä½łæĥ³
ä¸įæĺ¯ æ°¸è¿ľ
ä¸įæĺ¯ ä½ľä¸º
ä¸įæĺ¯ éĶĻè¯¯
ä¸įæĺ¯ å¤©å¡Įä¸ĭæĿ¥äºĨ
ä¸įæĺ¯ æĪĳæ¸©æŁĶ
ä¸įæĺ¯ æĥ³åģļä»Ģä¹Ī
ä¸įæĺ¯ åĽºå®ļ
å¾Ī å¤§
å¾Ī æŃ£
å¾Ī å°ı
å¾Ī å¥½çļĦ
å¾Ī éļ
å¾Ī ç»Ĩ
å¾Ī å¹¼ç¨ļ
å¾Ī æ®ĭå¿į
åģ ¶å°
éĹ® ä¸ĭåİ»
éĹ® ä½łäºĽ
âĢĻ âĢĶâĢĶ
åĪ° æľĢ
åĪ° å¹
åĪ° åºķ
åĪ° æĪĳçļĦè
åĪ° è¶³å¤Ł
æī Ľ
æī ¿æĭħ
æİ Įå¿ĥ
çĶ »åľ¨
çĶ ļèĩ
ä¸ĭ æ¬¡
ä¸ĭ å±±
ä¸ĭ éĤ£äºĽ
ä¸ĭ çļĦèĬ±
ä¸ĭ éĽ¨
ä¸ĭ æĪĳä¸Ģæł·
æ²¡ äºĭ
æ²¡ ä»Ģä¹Īå¥½æĢķ
çĿĢ è¢«
çĿĢ éķ¿æĪĲ
åĬ łæ²
åİ ĭåĬĽ
è§īå¾Ĺ æĪĳå¾Ī
èĥ½ çľĭè§ģ
èĥ½ æ¼
èĥ½ ç¢°
èĥ½ ä¸įæĩĤ
èĥ½ ä¸ºä½łéģ
å¤§ è£Ĥç¼Ŀ
å¤§ çļĦåı
å¤§ ä»ĩæ·±
èĩªå·± æĺ¯ä»Ģä¹Ī
èĩªå·± ä¸ºä»Ģä¹Ī
èĩªå·± çļĦç
èĩªå·± å°±å¥½
èĩªå·± çĶ»åľ¨
çĪ± åĲĹ
çĪ± æľ¬èº«
çĪ± åķĬ
çĪ± ä¸Ģä¸ªäºº
çĪ± çļĦå¤§æ
çĪ± è¦ģéĢĤåı¯èĢĮæŃ¢
çĪ± ä¸įæĺ¯åľ°
åĨ ħ
æł ĩæ³¨
éĢ ģç»Ļ
éĢ ļè¡Į
