{"<PAD>":0,"<UNK>":1,"<BOS>":2,"<EOS>":3,"<SEP>":4,"!":5,"\"":6,"#":7,"$":8,"%":9,"&":10,"'":11,"(":12,")":13,"*":14,"+":15,",":16,"-":17,".":18,"/":19,"0":20,"1":21,"2":22,"3":23,"4":24,"5":25,"6":26,"7":27,"8":28,"9":29,":":30,";":31,"<":32,"=":33,">":34,"?":35,"@":36,"A":37,"B":38,"C":39,"D":40,"E":41,"F":42,"G":43,"H":44,"I":45,"J":46,"K":47,"L":48,"M":49,"N":50,"O":51,"P":52,"Q":53,"R":54,"S":55,"T":56,"U":57,"V":58,"W":59,"X":60,"Y":61,"Z":62,"[":63,"\\":64,"]":65,"^":66,"_":67,"`":68,"a":69,"b":70,"c":71,"d":72,"e":73,"f":74,"g":75,"h":76,"i":77,"j":78,"k":79,"l":80,"m":81,"n":82,"o":83,"p":84,"q":85,"r":86,"s":87,"t":88,"u":89,"v":90,"w":91,"x":92,"y":93,"z":94,"{":95,"|":96,"}":97,"~":98,"¡":99,"¢":100,"£":101,"¤":102,"¥":103,"¦":104,"§":105,"¨":106,"©":107,"ª":108,"«":109,"¬":110,"®":111,"¯":112,"°":113,"±":114,"²":115,"³":116,"´":117,"µ":118,"¶":119,"·":120,"¸":121,"¹":122,"º":123,"»":124,"¼":125,"½":126,"¾":127,"¿":128,"À":129,"Á":130,"Â":131,"Ã":132,"Ä":133,"Å":134,"Æ":135,"Ç":136,"È":137,"É":138,"Ê":139,"Ë":140,"Ì":141,"Í":142,"Î":143,"Ï":144,"Ð":145,"Ñ":146,"Ò":147,"Ó":148,"Ô":149,"Õ":150,"Ö":151,"×":152,"Ø":153,"Ù":154,"Ú":155,"Û":156,"Ü":157,"Ý":158,"Þ":159,"ß":160,"à":161,"á":162,"â":163,"ã":164,"ä":165,"å":166,"æ":167,"ç":168,"è":169,"é":170,"ê":171,"ë":172,"ì":173,"í":174,"î":175,"ï":176,"ð":177,"ñ":178,"ò":179,"ó":180,"ô":181,"õ":182,"ö":183,"÷":184,"ø":185,"ù":186,"ú":187,"û":188,"ü":189,"ý":190,"þ":191,"ÿ":192,"Ā":193,"ā":194,"Ă":195,"ă":196,"Ą":197,"ą":198,"Ć":199,"ć":200,"Ĉ":201,"ĉ":202,"Ċ":203,"ċ":204,"Č":205,"č":206,"Ď":207,"ď":208,"Đ":209,"đ":210,"Ē":211,"ē":212,"Ĕ":213,"ĕ":214,"Ė":215,"ė":216,"Ę":217,"ę":218,"Ě":219,"ě":220,"Ĝ":221,"ĝ":222,"Ğ":223,"ğ":224,"Ġ":225,"ġ":226,"Ģ":227,"ģ":228,"Ĥ":229,"ĥ":230,"Ħ":231,"ħ":232,"Ĩ":233,"ĩ":234,"Ī":235,"ī":236,"Ĭ":237,"ĭ":238,"Į":239,"į":240,"İ":241,"ı":242,"Ĳ":243,"ĳ":244,"Ĵ":245,"ĵ":246,"Ķ":247,"ķ":248,"ĸ":249,"Ĺ":250,"ĺ":251,"Ļ":252,"ļ":253,"Ľ":254,"ľ":255,"Ŀ":256,"ŀ":257,"Ł":258,"ł":259,"Ń":260,"ä¸":261,"ï¼":262,"ãĢ":263,"ãĢĤ":264,"ä½":265,"\":":266,"\":\"":267,"ï¼Į":268,"ä½ł":269,"çļ":270,"çļĦ":271,"æĪ":272,"æĺ":273,"æĪĳ":274,"æĺ¯":275,"äº":276,"ãĢĤ\"":277,"âĢ":278,"ä»":279,"ä¸Ģ":280,"å¤":281,",\"":282,"an":283,"as":284,"er":285,"is":286,"ser":287,"sis":288,"tan":289,"user":290,"{\"":291,"assis":292,"tant":293,"assistant":294,"čĊ":295,"æľ":296,"ä¸į":297,"ä¹":298,"ãĢĤ\"}":299,"ï¼Ł":300,"è¿":301,"åľ":302,"ï¼Ł\"":303,"ä¼":304,"è¯":305,"âĢĶ":306,"å°":307,"ä¼ļ":308,"åĲ":309,"ï¼Ł\",\"":310,"åı":311,"åľ¨":312,"äºĨ":313,"æľī":314,"å®":315,"å¾":316,"æĦ":317,"å°±":318,"åĪ":319,"ä¹Ī":320,"å¥":321,"çľ":322,"ĥ½":323,"å¥½":324,"è§":325,"Ģä¹Ī":326,"ä»Ģä¹Ī":327,"æĥ":328,"éĤ":329,"éĩ":330,"éĤ£":331,"æĿ":332,"äºº":333,"ãĢĤ\",\"":334,"âĢĶâĢĶ":335,"æĥ³":336,"¦ģ":337,"ä¸º":338,"çļĦæ":339,"åĲĹ":340,"åĽ":341,"è¦ģ":342,"å¤©":343,"è®":344,"éĹ":345,"è¯´":346,"åŃ":347,"è¿Ļ":348,"æĿ¥":349,"æŃ":350,"ä¸ª":351,"å¾Ĺ":352,"åĥ":353,"æĢ":354,"ä½Ĩ":355,"æĦı":356,"åĥı":357,"å¿":358,"ä¸Ģç":359,"éĩĮ":360,"å·":361,"éĥ½":362,"è§ī":363,"çľŁ":364,"æ²":365,"çĿ":366,"Ĺ¶":367,"ä¹Ł":368,"¯ı":369,"åħ":370,"èĢ":371,"èĩ":372,"ä¸įæĺ¯":373,"å¾Ī":374,"¥¿":375,"åģ":376,"è¥¿":377,"éĹ®":378,"èĩª":379,"å¼":380,"åĢ":381,"âĢĺ":382,"âĢĻ":383,"åĪ°":384,"æī":385,"æİ":386,"ç»":387,"çĶ":388,"ä¸ĭ":389,"æ²¡":390,"çĿĢ":391,"¦Ĥ":392,"åĬ":393,"åİ":394,"è§īå¾Ĺ":395,"çĪ":396,"çŁ":397,"èµ":398,"èĥ½":399,"å¤§":400,"å·±":401,"èĩªå·±":402,"çĪ±":403,"åĨ":404,"æł":405,"éĢ":406,"è¯Ŀ":407,"æĦ¿":408,"å°±æĺ¯":409,"çľĭ":410,"åĽŀ":411,"èĢĮ":412,"§į":413,"åĳ":414,"æ¸":415,"å®ĥ":416,"å¿ĥ":417,"åģļ":418,"æĦ¿æĦı":419,"åĩ":420,"æĸ":421,"çķ":422,"è·":423,"éĽ":424,"ĺåľ¨":425,"ä¸Ģä¸ª":426,"æľĢ":427,"ä¸įä¼ļ":428,"åİ»":429,"æł·":430,"ä¿":431,"æ¯ı":432,"çŃ":433,"Ĭå¤©":434,"ä½łè§īå¾Ĺ":435,"ä»¥":436,"ä»Ĭå¤©":437,"åı¯":438,"åĽł":439,"Ĺ¶åĢ":440,"Ĺ¶åĢĻ":441,"å¦Ĥ":442,"æ¬":443,"æ°":444,"ç´":445,"éĻ":446,"éĿ":447,"Ľ´":448,"æĺ¯ä½ł":449,"åľ°":450,"å®ŀ":451,"è®°":452,"æ²¡æľī":453,"åĽłä¸º":454,"©æ":455,"´»":456,"æŀ":457,"æ´»":458,"è¢":459,"èı":460,"Ĥ¹":461,"ıèı":462,"ãĢģ":463,"äºĽ":464,"ä»¬":465,"å¤±":466,"è¿ĩ":467,"åı¥":468,"éĩį":469,"çļĦæĹ¶åĢĻ":470,"åŃĺåľ¨":471,"çŁ³":472,"èµ·":473,"åĩº":474,"éĽıèı":475,"ç´¯":476,"éĽıèıĬ":477,"åº":478,"æĬ":479,"ŁĶ":480,"ä½łè¯´":481,"çļĦè":482,"æĺ¯ä»Ģä¹Ī":483,"äºĭ":484,"æĦŁ":485,"æĢķ":486,"å¦Ĥæŀ":487,"éĻª":488,"è¢«":489,"å¦Ĥæŀľ":490,"åį":491,"æĭ":492,"çł":493,"èº":494,"é¢":495,"éģ":496,"åıª":497,"åıĺ":498,"å®ī":499,"å°±åĥı":500,"è§ģ":501,"éĹ´":502,"åŃĲ":503,"æŃ£":504,"ä¸ĢçĽ´":505,"æİ¨":506,"çķĮ":507,"©æŁĶ":508,"æķ":509,"æĹ¶":510,"éķ":511,"éľ":512,"Ģè¦ģ":513,"Ĺæĸ":514,"æĺİ":515,"æĪĳåľ¨":516,"æĪĳå¥½":517,"å¤´":518,"å¤ļ":519,"ä¹ī":520,"è¿ĺ":521,"åĪ»":522,"çļĦæ¯ı":523,"æĦıä¹ī":524,"è¥¿è¥¿":525,"å¼Ĺæĸ":526,"ç»Ļ":527,"çĶŁ":528,"åı¥è¯Ŀ":529,"éķ¿":530,"éľĢè¦ģ":531,"è¥¿è¥¿å¼Ĺæĸ":532,"è¥¿è¥¿å¼Ĺæĸ¯":533,"¢¦":534,"å±":535,"å½":536,"æ¢¦":537,"ç§į":538,"ä½łçļĦ":539,"ä½łä¼ļ":540,"ä½łæľī":541,"çļĦäºº":542,"æĪĳä¼ļ":543,"ä¸Ģå¤©":544,"ä¸Ģèµ·":545,"ï¼Ł\"}":546,"å°ı":547,"åĲ§":548,"åĲİ":549,"éĤ£å°±":550,"ä¸ºäºĨ":551,"ä¸ºä»Ģä¹Ī":552,"è¿Ļä¸ª":553,"æŃ¤":554,"ä¸Ģç§į":555,"çľŁå®ŀ":556,"éĹ®é¢":557,"å¼Ģ":558,"åĳ½":559,"æ¬¡":560,"æ´»çĿĢ":561,"åĩºæĿ¥":562,"éĹ®é¢ĺ":563,"±»":564,"å¯":565,"å¹":566,"åĸ":567,"æ³":568,"æĶ":569,"æĹ":570,"æĻ":571,"çĤ¹":572,"ç±»":573,"è°":574,"è½":575,"èĦ":576,"ĸçķĮ":577,"ä¸Ĭ":578,"ä¸ĸçķĮ":579,"ä½ı":580,"æĪĲ":581,"ä»ĸ":582,"ä¸Ģæł·":583,"å¤į":584,"æľ¬":585,"åĲ¬":586,"åľ¨ä½ł":587,"äººç±»":588,"è®©":589,"æīį":590,"åĬĽ":591,"å¤§æ":592,"åĨĻ":593,"èĢĮæĺ¯":594,"æ¸©æŁĶ":595,"ä¿Ŀ":596,"çŃī":597,"çŃĶ":598,"åı¯ä»¥":599,"éĿĻ":600,"éĩįè¦ģ":601,"çŁ³å¤´":602,"åºĶ":603,"æĬĬ":604,"æĦŁè§ī":605,"éĻªä½ł":606,"èº«":607,"çļĦæ¯ıä¸Ģ":608,"å±±":609,"..":610,"£İ":611,"¥éģ":612,"¶Ī":613,"å¸":614,"åķ":615,"æ®":616,"æģ":617,"æħ":618,"çĦ":619,"çĽ":620,"è¾":621,"é¡":622,"é£İ":623,"Ĭ±":624,"İä¹Ī":625,"ĽéĢ":626,"æĪĳçļĦ":627,"æĪĳä»¬":628,"å¤Ł":629,"æľĽ":630,"è¿Ľ":631,"æľīä¸Ģå¤©":632,"å®³":633,"å®ļ":634,"åĪ«":635,"åĪĽéĢ":636,"éĤ£äºĽ":637,"è®¤":638,"åŃ¤":639,"æĢİä¹Ī":640,"åħī":641,"âĢĻï¼Į":642,"æīĢ":643,"çĶ¨":644,"çŁ¥éģ":645,"èµ°":646,"åĽŀåºĶ":647,"å¿ĥéĩĮ":648,"æ°¸":649,"æ°Ķ":650,"æĪĳåľ¨è¿Ļ":651,"è¿ĺæĺ¯":652,"å¯¹":653,"æľ¬èº«":654,"å¤§æ¦Ĥ":655,"æħ¢":656,"çĦ¶":657,"åĪĽéĢł":658,"çŁ¥éģĵ":659,"ªåĬĽ":660,"»æĺ¯":661,"ä¾":662,"åĴ":663,"åĵ":664,"æ¶Ī":665,"ç³":666,"èĲ":667,"ľæ¬":668,"ä½łæĦ¿æĦı":669,"çļĦåľ°":670,"æĪĳéĥ½":671,"ä»İ":672,"è¯¥":673,"æĥ³è¦ģ":674,"åĥıéĽıèıĬ":675,"å¿ħ":676,"ä¸ĢçĤ¹":677,"å·²":678,"çľŁæŃ£":679,"ä¹Łä¼ļ":680,"åĪ°çļĦ":681,"æİ¥":682,"ä¸ĭæĿ¥":683,"åĬªåĬĽ":684,"åĨį":685,"åĽŀçŃĶ":686,"åĳ¢":687,"æĸ¹":688,"çķĻ":689,"ä¿¡":690,"è®°å¾Ĺ":691,"çļĦèĬ±":692,"çłģ":693,"æİ¨çŁ³":694,"æĪĳå¥½åĥı":695,"å½ĵ":696,"æŃ¤åĪ»":697,"åĸľæ¬":698,"æĻļ":699,"è°¢":700,"éĩįè¦ģçļĦ":701,"åķĬ":702,"å®³æĢķ":703,"è®¤çľŁ":704,"åĴĮ":705,"èĲ½":706,"çļĦåľ°æĸ¹":707,"åĸľæ¬¢":708,"¡Į":709,"£çłģ":710,"°æ":711,"³ç³":712,"¾İ":713,"æµ":714,"æ·":715,"æĲ":716,"ç¦":717,"ç¬":718,"ç®":719,"ç¼":720,"çĭ":721,"ç¾İ":722,"è£":723,"è´":724,"é»":725,"éĥ":726,"éĶ":727,"éĺ":728,"īæĭ":729,"į®":730,"Ĳå¿ĥ":731,"ľè¥¿":732,"ä¸ľè¥¿":733,"ï¼ļ":734,"ä½ľ":735,"ä½łä¸į":736,"ä½łæĥ³":737,"çļĦç":738,"çļĦä»":739,"çļĦè¯Ŀ":740,"çļĦåŃĺåľ¨":741,"æĪĳè§īå¾Ĺ":742,"æĪĳéĻªä½ł":743,"äº®":744,"ä¸įæĥ³":745,"ä¸įèĥ½":746,"ä¹ĭ":747,"è¿Ĳ":748,"è¿ľ":749,"åıĹ":750,"å®Į":751,"åĪ¶":752,"å¥½èµ·":753,"è§£":754,"ä»Ģä¹Īæĺ¯":755,"ä»Ģä¹Īéĥ½":756,"éĤ£ä¸ª":757,"æŃĩ":758,"æĢ»æĺ¯":759,"ä½Ĩå®ĥ":760,"ä½Ĩä»ĸ":761,"å¿Ĩ":762,"ä¹Łæĺ¯":763,"åħ³ç³":764,"èĢĲå¿ĥ":765,"æİī":766,"æ²¡åħ³ç³":767,"çĪ±æĺ¯":768,"éĢīæĭ":769,"çľĭè§ģ":770,"æ¸ħ":771,"è·¯":772,"æ¯ıä¸Ģä¸ª":773,"è®°å¿Ĩ":774,"åĽłä¸ºä½ł":775,"åį³":776,"å®īéĿĻ":777,"æĹ¶éĹ´":778,"éķ¿å¤§":779,"è¿Ļä¸ªéĹ®é¢ĺ":780,"åĳ½è¿Ĳ":781,"è½»":782,"èĦļ":783,"çļĦæ¯ıä¸Ģåı¥è¯Ŀ":784,"æ®µ":785,"çĽ¸":786,"åĪ«äºº":787,"åŃ¤çĭ":788,"æīĢä»¥":789,"å¤§æ¦Ĥå°±æĺ¯":790,"æ¶Īå¤±":791,"åĽŀçŃĶä½ł":792,"æĻļå®ī":793,"°æį®":794,"éĥ¨":795,"éĶĻ":796,"æĪĳè§īå¾Ĺèĩªå·±":797,"å¥½èµ·æĿ¥":798,"æ²¡åħ³ç³»":799,"éĢīæĭ©":800,"åŃ¤çĭ¬":801,"¢°":802,"¬éĹ´":803,"¯Ķ":804,"±¡":805,"³å®ļ":806,"¸äºĨ":807,"¸©æŁĶ":808,"ºå°ı":809,"»ļ":810,"¼å¾Ĺ":811,"¾è¿Ľ":812,"åĦ":813,"åĿ":814,"æ¼":815,"æĩ":816,"æĮ":817,"æĴ":818,"æļ":819,"æĽ´":820,"æ¯Ķ":821,"æ»ļ":822,"çĥ":823,"çŀ":824,"è¶":825,"èī":826,"è±¡":827,"Ĩå¼":828,"ĩæĢ":829,"ĭåĪ¶":830,"ļå¥½":831,"ŀçł":832,"ä¸Ń":833,"ä½ķ":834,"ä½łä»¬":835,"çļĦæĺ¯":836,"æĪĸ":837,"æĺŁ":838,"æĪĳæľī":839,"æĪĳå°±":840,"æĪĳè¯´":841,"æĪĳä¸įä¼ļ":842,"æĪĳä»Ĭå¤©":843,"æĪĳæĺ¯ä½ł":844,"æĺ¯ä¸įæĺ¯":845,"æĺ¯ä¸ºäºĨ":846,"ä»¶":847,"ä¸ĢåĪ":848,"ä¸Ģæ®µ":849,"å¤ľ":850,"æľª":851,"ä¸įåľ¨":852,"ä¸įäºĨ":853,"è¿ĳ":854,"è¿ĺåľ¨":855,"è¯ī":856,"æľīæĦıä¹ī":857,"å¾ħ":858,"å°±å·²":859,"åĪļå¥½":860,"å¥ĩæĢ":861,"çľ¼":862,"å¥½çļĦ":863,"éĤ£æł·":864,"æĿŁ":865,"äººä¸ºä»Ģä¹Ī":866,"çļĦæ¸©æŁĶ":867,"è®¸":868,"è¯´åĩº":869,"è¯´åĩºæĿ¥":870,"è¿Ļåı¥è¯Ŀ":871,"æŃ¢":872,"æŃ¥":873,"ä½Ĩä½ł":874,"å·¥":875,"éĥ½ä¼ļ":876,"çĿ¡":877,"ä¹Łæ²¡åħ³ç³»":878,"åħ¨":879,"åħ¶":880,"åħ·":881,"åħĭåĪ¶":882,"å¾Īå¤ļ":883,"åģľ":884,"éĹ®æĪĳ":885,"èĩªçĶ":886,"åĢ¼å¾Ĺ":887,"åĪ°äºĨ":888,"æī¾":889,"ç»ı":890,"åĨ³å®ļ":891,"å°±æĺ¯ä¸Ģç§į":892,"èĢĮæĪĳ":893,"æ¸ºå°ı":894,"å®ĥä»¬":895,"å¿ĥè·":896,"éĽ¨":897,"æľĢéĩįè¦ģçļĦ":898,"ä»¥åĲİ":899,"ä»Ĭå¤©ä¼ļ":900,"éĿł":901,"è®°ä½ı":902,"éĩįå¤į":903,"ç´¯äºĨ":904,"åºķ":905,"ä½łè¯´è¿ĩ":906,"æĦŁåıĹ":907,"åį´":908,"èºº":909,"éģĩ":910,"åıªè¦ģ":911,"åıĺæĪĲ":912,"å°±åĥıéĽıèıĬ":913,"æŃ£æĺ¯":914,"æķ£":915,"æķ°æį®":916,"æĺİå¤©":917,"çĶŁåĳ½":918,"éľĢè¦ģæĪĳ":919,"ç§įåŃĲ":920,"æ³¨":921,"æĶ¾è¿Ľ":922,"æĹł":923,"è½¯":924,"ä¿ĿçķĻ":925,"å±±é¡":926,"...":927,"æģĴ":928,"è¾¹":929,"æ°¸è¿ľ":930,"æ°¸æģĴ":931,"è¿ĺæĺ¯æĥ³":932,"ä¾¿":933,"åĵŃ":934,"åĥıéĽıèıĬä¸Ģæł·":935,"çľŁæŃ£çļĦ":936,"æİ¥ä½ı":937,"ä¸ĭæĿ¥äºĨ":938,"å½ĵä½ł":939,"æ·±":940,"æĲŀçł":941,"ç®Ĺ":942,"çļĦä»£çłģ":943,"æĪĳéĻªä½łä¸Ģèµ·":944,"çĪ±æĺ¯åħĭåĪ¶":945,"åį³ä¾¿":946,"çĽ¸ä¿¡":947,"åĦ¿":948,"æĩĤ":949,"çŀ¬éĹ´":950,"Ĩå¼±":951,"ä¸ĢåĪĩ":952,"æľīæĦıä¹īåĲĹ":953,"å¥ĩæĢª":954,"èĩªçĶ±":955,"å¿ĥè·³":956,"æĦŁåıĹåĪ°çļĦ":957,"å±±é¡¶":958,"æĲŀçł¸äºĨ":959,"¥å¤©":960,"¥åŃĲ":961,"§ĭ":962,"§ç»":963,"¨ļ":964,"ªéĩĮ":965,"«Ļ":966,"®è":967,"°åľ¨":968,"³å¤Ł":969,"³åħī":970,"´çļĦ":971,"´æİī":972,"·åŃĲ":973,"¸ç¦":974,"¹å":975,"¹åıĺ":976,"ºçĤ¹":977,"¼ç":978,"å¢":979,"å¡Į":980,"å§ĭ":981,"æ£":982,"æĹ¶åĢĻ":983,"çħ":984,"çī":985,"çİ":986,"ç¢°":987,"ç«Ļ":988,"èĭ":989,"è¡Į":990,"éļ":991,"ģä¸įæĺ¯":992,"Ĥåı¯":993,"Ĥç¼":994,"Ħèī":995,"ħéĥ½":996,"īĩ":997,"īé»":998,"Ĭè¯ī":999,"ĭå¿":1000,"ĮæľĽ":1001,"ĳæĪĳ":1002,"ĳçĿĢ":1003,"ĳæļ":1004,"ĵæĿŁ":1005,"Ļ¨":1006,"ļĸ":1007,"ļå®ŀ":1008,"ļæĮ":1009,"Ľå¼Ģ":1010,"ĿçĦ¶":1011,"Ŀç¦":1012,"ŁéĩĮ":1013,"ŁçĤ¹":1014,"ł·åŃĲ":1015,"\":\"âĢĺ":1016,"ä½łåĨĻ":1017,"ä½łåı¯ä»¥":1018,"ä½łä¾":1019,"ä½łä»Ĭå¤©ä¼ļ":1020,"çļĦå®":1021,"çļĦåĲĹ":1022,"çļĦäºĭ":1023,"çļĦæĦŁè§ī":1024,"çļĦåħī":1025,"çļĦä¸ľè¥¿":1026,"çļĦåĳ½è¿Ĳ":1027,"çļĦéĥ¨":1028,"æĺ¥å¤©":1029,"æĪĳæĺ¯":1030,"æĪĳæĥ³":1031,"æĪĳçļĦæ":1032,"æĪĳåĲĹ":1033,"æĪĳæĿ¥":1034,"æĪĳå¾Ī":1035,"æĪĳèĥ½":1036,"æĪĳæ²¡æľī":1037,"æĪĳçļĦè":1038,"æĪĳçļĦæ¯ı":1039,"æĪĳåı¯ä»¥":1040,"æĪĳä¹Łä¼ļ":1041,"æĪĳæĽ´":1042,"æĪĳéĿł":1043,"æĺ¯ä¸Ģç§į":1044,"ä»»":1045,"ä»½":1046,"ä¸Ģæľ":1047,"ä¸Ģä¼ļ":1048,"ä¸Ģä¸ĭ":1049,"ä¸Ģåı¥":1050,"ä¸ĢåĪ»":1051,"ä¸Ģæ¬¡":1052,"ä¸ĢæŃĩ":1053,"å¤ª":1054,"å¤Ħ":1055,"ä¸įçĿĢ":1056,"ä¸įåģļ":1057,"ä¸įåı¯":1058,"ä¸įè§ģ":1059,"ä¸įåĩºæĿ¥":1060,"ä¸įçŁ¥éģĵ":1061,"ä¸įè¯¥":1062,"ä¸įå¿ħ":1063,"è¿·":1064,"åľŁéĩĮ":1065,"è¯¯":1066,"è¯»":1067,"è¯ģ":1068,"è¯Ĩ":1069,"è¯Ń":1070,"è¯ļå®ŀ":1071,"ä¼ļç»":1072,"ä¼ļä¸įä¼ļ":1073,"åĲ¹":1074,"åĲĳæĪĳ":1075,"åı¦":1076,"åıĪ":1077,"åıĳ":1078,"åľ¨åģļ":1079,"åľ¨æİ¨":1080,"åľ¨å±±":1081,"äºĨä¸Ģä¸ª":1082,"äºĨè§£":1083,"æľīæ²¡æľī":1084,"æľīäºĽ":1085,"æľīå¿ħ":1086,"æľīåķĬ":1087,"æľīæĹ¶åĢĻ":1088,"å¾Ģ":1089,"å°±å¥½":1090,"å°±å¤Ł":1091,"åĪĨ":1092,"çľł":1093,"å¥½äºĨ":1094,"ä»Ģä¹Īæł·":1095,"éĤ£ä½ł":1096,"éĤ£ä¹Ī":1097,"éĤ£ç§į":1098,"äººçĶŁ":1099,"çļĦæł·åŃĲ":1100,"å¤©å¡Į":1101,"è¯´æĺİ":1102,"åŃĹ":1103,"è¿Ļæł·":1104,"è¿Ļç§į":1105,"è¿Ļå°±å¤Ł":1106,"æĿ¥çļĦæĹ¶åĢĻ":1107,"æŃ»":1108,"æĢĿ":1109,"ä½Ĩæ¯ı":1110,"ä½Ĩå¦Ĥæŀľ":1111,"ä½Ĩè¥¿è¥¿å¼Ĺæĸ¯":1112,"æĦıè¯Ĩ":1113,"åĥıä¸Ģ":1114,"ä¸Ģçīĩ":1115,"éĩĮçļĦæ¸©æŁĶ":1116,"éĥ½åľ¨":1117,"çľŁå¥½":1118,"æ²īé»":1119,"ä¹Łè®¸":1120,"ä¸įæĺ¯åĽłä¸º":1121,"å¾Īå¥½":1122,"å¾Īç´¯":1123,"å¾Īç¾İ":1124,"å¾Īæ¸ºå°ı":1125,"åģĩ":1126,"åĢ¾":1127,"åĢĴ":1128,"âĢĻãĢĤ":1129,"âĢĻãĢĤ\"}":1130,"åĪ°åİ":1131,"åĪ°ä¸įäºĨ":1132,"æīĭ":1133,"ç»Ĩ":1134,"ç»§ç»":1135,"ä¸ĭçļĦ":1136,"ä¸ĭåİ»":1137,"åĬ¨":1138,"åĬŀ":1139,"åĬŁ":1140,"èĥ½æĶ":1141,"èĥ½ä¸įèĥ½":1142,"èĥ½æİ¥ä½ı":1143,"èĩªå·±çļĦ":1144,"èĩªå·±çļĦèĬ±":1145,"çĪ±æľī":1146,"çĪ±æĺ¯ä»Ģä¹Ī":1147,"éĢĢ":1148,"éĢĤåı¯":1149,"å°±æĺ¯ä¸ºäºĨ":1150,"çľĭåĪ°":1151,"çľĭä¸įè§ģ":1152,"åĽŀåĪ°åİ":1153,"èĢĮæŃ¢":1154,"åĳĬè¯ī":1155,"æ¸©æ":1156,"å®ĥåıª":1157,"åģļä»Ģä¹Ī":1158,"åģļéĶĻ":1159,"è·¨":1160,"è·Į":1161,"è·Ł":1162,"è·Ŀç¦":1163,"ä¸Ģä¸ªäºº":1164,"æľĢçľŁå®ŀ":1165,"æ¯ıå¤©":1166,"æ¯ıä¸ª":1167,"éĿ¢":1168,"æĺ¯ä½łèĩªå·±":1169,"æĺ¯ä½łå¿ĥéĩĮ":1170,"æ´»æ³":1171,"å¤±æľĽ":1172,"å¤±è´":1173,"å¤±çľł":1174,"æĬ¤":1175,"æĬĹ":1176,"çļĦèĦ":1177,"éĻªçĿĢ":1178,"è¢«è®°ä½ı":1179,"å¦ĤæŀľæĪĳ":1180,"å¦Ĥæŀľä½łæľī":1181,"åįķ":1182,"æĭħ":1183,"çł´æİī":1184,"åıªæľī":1185,"å°±åĥıè¥¿è¥¿å¼Ĺæĸ¯":1186,"æĺİæĺİ":1187,"æĪĳå¥½ç´¯":1188,"æĦıä¹īä¸įæĺ¯":1189,"éķ¿æĪĲ":1190,"å½±":1191,"æ¢¦éĩĮ":1192,"ä½łä¼ļä¸įä¼ļ":1193,"ä½łæľīä»Ģä¹Ī":1194,"æĪĳä¼ļä¸įä¼ļ":1195,"ä¸Ģèµ·åİ»":1196,"è¿Ļä¸ªä¸ĸçķĮ":1197,"å¼Ģå§ĭ":1198,"å¼Ģèĩªå·±çļĦèĬ±":1199,"æ´»çĿĢæĺ¯ä¸ºäºĨ":1200,"å¹³":1201,"å¹¸ç¦":1202,"å¹¼ç":1203,"åĸĦèī":1204,"æĹ©":1205,"æĹ¥åŃĲ":1206,"èĦĨå¼±":1207,"ä¸Ĭåİ»":1208,"ä¸ĬçļĦç":1209,"è®©åĪ«äºº":1210,"æīįæĺ¯":1211,"åĨĻç»Ļ":1212,"æ¸©æŁĶåľ°":1213,"ä¿Ŀè¯ģ":1214,"çŃīä½ł":1215,"çŃīé£İ":1216,"çŁ³å¤´æ»ļ":1217,"å¸¸":1218,"å¸ĮæľĽ":1219,"æ®ĭå¿":1220,"çĽĽå¼Ģ":1221,"é¡¿":1222,"æĪĳä»¬ä¹ĭ":1223,"è¿Ľæķ°æį®":1224,"æľīä¸Ģå¤©ä¼ļç»":1225,"å®ļå¤±è´":1226,"åŃ¤åįķ":1227,"æĢİä¹ĪåĬŀ":1228,"æīĢæľī":1229,"çĶ¨åĬŁ":1230,"èµ°ä¸įåĩºæĿ¥":1231,"å¤§æ¦Ĥæĺ¯":1232,"æħ¢æħ¢":1233,"åĪĽéĢłäºĨ":1234,"çŁ¥éģĵæľīä¸Ģå¤©ä¼ļç»":1235,"åĵªéĩĮ":1236,"ä½łæĦ¿æĦıéĹ®":1237,"ä»İæĿ¥":1238,"ä¿¡ä»»":1239,"æİ¨çŁ³çļĦ":1240,"å½ĵçĦ¶":1241,"è®¤çľŁåĲ¬":1242,"åĴĮæĪĳè¯´":1243,"åĸľæ¬¢å¤§æ¦Ĥå°±æĺ¯":1244,"æµ·":1245,"ç¬¬":1246,"ç¬ĳçĿĢ":1247,"ç¼ºçĤ¹":1248,"è£ħ":1249,"è£Ĥç¼":1250,"é»ĳæļ":1251,"éĺ³åħī":1252,"ä½ľä¸º":1253,"ä½łä¸įéľĢè¦ģ":1254,"ä¸įæĥ³è¯´":1255,"å®Įåħ¨":1256,"ä»Ģä¹Īéĥ½ä¸įåģļ":1257,"éĤ£ä¸ªæĦ¿æĦı":1258,"æŃĩä¸ĢæŃĩ":1259,"æĢ»æĺ¯ä¼ļ":1260,"è·¯è¿ĩ":1261,"æ¯ıä¸Ģä¸ªåģľ":1262,"å®īéĿĻåľ°":1263,"è¿Ļä¸ªéĹ®é¢ĺçļĦæĹ¶åĢĻ":1264,"éĶĻè¯¯":1265,"åĿļæĮ":1266,"æ¼«":1267,"æĴŀ":1268,"çĥ¦":1269,"è¶³å¤Ł":1270,"è±¡ä¸Ń":1271,"æĪĳå°±ä¼ļ":1272,"æľªæĿ¥":1273,"ä¸įåľ¨äºĨ":1274,"å°±å·²ç»ı":1275,"äººä¸ºä»Ģä¹ĪæĢ»æĺ¯ä¼ļ":1276,"æŃ¥åĲĹ":1277,"ä½Ĩä½łçľĭ":1278,"å·¥åħ·":1279,"éĥ½ä¼ļå¥½èµ·æĿ¥":1280,"çĿ¡ä¸įçĿĢ":1281,"åħ¶å®ŀ":1282,"æľĢéĩįè¦ģçļĦæĺ¯ä»Ģä¹Ī":1283,"èººå¹³":1284,"éģĩè§ģ":1285,"åıªè¦ģä½ł":1286,"éľĢè¦ģæĪĳçļĦæĹ¶åĢĻ":1287,"æ³¨å®ļå¤±è´":1288,"æĹłçĶ¨åĬŁ":1289,"è¾¹çķĮ":1290,"ä¸ĢåĪĩéĥ½ä¼ļå¥½èµ·æĿ¥":1291,"¹åĻ¨":1292,"çħ§":1293,"çİ°åľ¨":1294,"èĭ¦":1295,"ĿçĦ¶æĦ¿æĦı":1296,"ä½łä¾ĿçĦ¶æĦ¿æĦı":1297,"çļĦå®¹åĻ¨":1298,"çļĦéĥ¨åĪĨ":1299,"æĪĳæĺ¯ä¸Ģæ®µ":1300,"æĪĳéĿłè¿ĳ":1301,"ä¸Ģæľµ":1302,"ä¸Ģä¼ļåĦ¿":1303,"åľ¨å±±èĦļ":1304,"æľīå¿ħè¦ģ":1305,"å¤©å¡Įä¸ĭæĿ¥äºĨ":1306,"è¯´æĺİä½ł":1307,"æ²īé»ĺ":1308,"ç»§ç»Ń":1309,"èĥ½æĶ¹åıĺ":1310,"éĢĤåı¯èĢĮæŃ¢":1311,"åĽŀåĪ°åİŁçĤ¹":1312,"æ¸©æļĸ":1313,"å®ĥåıªæĺ¯":1314,"åģļéĶĻäºĭ":1315,"æ´»æ³ķ":1316,"çł´æİīçļĦå®¹åĻ¨":1317,"å¹¸ç¦ı":1318,"å¹¼ç¨ļ":1319,"åĸĦèī¯":1320,"è®©åĪ«äººå¤±æľĽ":1321,"æ®ĭå¿į":1322,"æĪĳä»¬ä¹ĭéĹ´":1323,"è¿Ľæķ°æį®éĩĮçļĦæ¸©æŁĶ":1324,"çŁ¥éģĵæľīä¸Ģå¤©ä¼ļç»ĵæĿŁ":1325,"åĴĮæĪĳè¯´è¯Ŀ":1326,"è£Ĥç¼Ŀ":1327,"é»ĳæļĹ":1328,"æ¯ıä¸Ģä¸ªåģľé¡¿":1329,"æ³¨å®ļå¤±è´¥":1330,"\"}":1331,"\",\"":1332,"¡£":1333,"¡¥":1334,"¡Ī":1335,"¡åĲĹ":1336,"¡å¾Ĺ":1337,"¡ç³":1338,"¡éĹ®æĪĳ":1339,"¢į":1340,"¢äºº":1341,"¢æ°Ķ":1342,"£°":1343,"£è½»":1344,"¤ª":1345,"¤éĩĮ":1346,"¤æŃ¤":1347,"¤åĩºæĿ¥":1348,"¤å®³":1349,"¥ļ":1350,"¥ŀ":1351,"¥æľī":1352,"¥åľŁéĩĮ":1353,"¦Ĩ":1354,"¦ĸ":1355,"¦èµ°":1356,"¦ç¢°":1357,"¨Ģ":1358,"¨åľ°":1359,"¨éĩį":1360,"¨¡ç³":1361,"©º":1362,"ªä¸į":1363,"ªäºĨ":1364,"ªè´":1365,"¬æĪĳåľ¨":1366,"®ä½ł":1367,"®å¤į":1368,"®éĺ":1369,"®çĥ":1370,"®çļĦä¸ľè¥¿":1371,"¯ä¸Ģ":1372,"°å¥½":1373,"°æ¬¡":1374,"°æľĽ":1375,"°ä¸ĭæĿ¥":1376,"°å¼Ģå§ĭ":1377,"±çłģ":1378,"²ĺ":1379,"²æĥ":1380,"³åĪĽéĢłäºĨ":1381,"´éĩĮ":1382,"´ç´":1383,"´ä¸Ģæł·":1384,"´å¾Īå¤ļ":1385,"´¨åľ°":1386,"µ·":1387,"µģ":1388,"µæł":1389,"µå¢":1390,"µæīĭ":1391,"¶å°":1392,"¶åĪ°äºĨ":1393,"·éĿĻ":1394,"¸èĲ½":1395,"¸æİī":1396,"¸æīĭ":1397,"¹åı":1398,"¹å¼":1399,"¹èĢĮ":1400,"¹åĪ«":1401,"¹è·¯":1402,"¹æŃ»":1403,"º¿":1404,"ºä¼ļ":1405,"ºå®ļ":1406,"ºå¥½çļĦ":1407,"º¹è·¯":1408,"»ç":1409,"»åľ¨":1410,"»æĿ":1411,"»æĿ¥":1412,"»æľ¬èº«":1413,"»åĴĮ":1414,"»ä½ķ":1415,"»åºķ":1416,"»èĥ½æİ¥ä½ı":1417,"¼åĲ":1418,"½®":1419,"½ç":1420,"½ľ":1421,"½éĹ®":1422,"½»æĿ":1423,"¾è®":1424,"¾åĽŀçŃĶ":1425,"¾å±±é¡¶":1426,"¾åıĳ":1427,"¿éĢ":1428,"¿æĭħ":1429,"¿ä¸Ģä¼ļåĦ¿":1430,"¿çŁ¥éģĵæľīä¸Ģå¤©ä¼ļç»ĵæĿŁ":1431,"¿»æĿ¥":1432,"åī":1433,"åĭ":1434,"åĮ":1435,"åĶ":1436,"åĹ":1437,"åĺ":1438,"åł":1439,"å£°":1440,"æĨ":1441,"æı":1442,"æĽ":1443,"æŁĶ":1444,"æ¡Ī":1445,"æ¥ļ":1446,"æ¨¡ç³":1447,"æ½ľ":1448,"çĨ":1449,"çĲ":1450,"çĵ":1451,"çĸ":1452,"çĻ":1453,"ç¦ģ":1454,"ç©º":1455,"ç²ĺ":1456,"ç½®":1457,"ç¿»æĿ¥":1458,"èĪ":1459,"èį":1460,"èĹ":1461,"èĬ±":1462,"è¤ª":1463,"è¦Ĩ":1464,"è¨Ģ":1465,"éĨ":1466,"éĴ":1467,"éŁ":1468,"é¦ĸ":1469,"Ģçľ¼":1470,"Ģ»åĴĮ":1471,"ĢçĻ":1472,"ģäºĨ":1473,"ģç»Ļ":1474,"ģçĽĽå¼Ģ":1475,"Ĥå¥":1476,"ĤæĹ¶":1477,"Ĥ¤éĩĮ":1478,"ĥæľĢ":1479,"ĦåĪ":1480,"ħéĩĮ":1481,"ħå®ŀ":1482,"ħæĭ":1483,"ħæĪĳä»¬":1484,"Ĩå¤":1485,"Ĩè§£":1486,"Ĩæİī":1487,"ĩçļĦ":1488,"ĩæ°":1489,"ĩæ°Ķ":1490,"ĩæ³¨":1491,"ĩæ·±":1492,"ĩéĴ":1493,"ĪäºĨ":1494,"Īå°±":1495,"ĪåĲ§":1496,"Īäº®":1497,"ĪæĬ¤":1498,"īç§į":1499,"īæĲ":1500,"Ĭåı":1501,"ĬĤå¥":1502,"ĭåı":1503,"ĭçĿĢ":1504,"ĭåĬĽ":1505,"ĭè°¢":1506,"ĭæĮ":1507,"ĭéĿł":1508,"Įå¿ĥ":1509,"Įæł·":1510,"Įåħ¶":1511,"ĮĩéĴ":1512,"įæĪĳå¾Ī":1513,"įæĬĹ":1514,"įç½®":1515,"İæĪĳçļĦè":1516,"İä¸Ĭåİ»":1517,"ıçĿĢ":1518,"ıåİ»":1519,"ıè¿Ľ":1520,"ĲæĦı":1521,"ĲéĹ®":1522,"Ĳä¸ĭ":1523,"ĲæĪĲ":1524,"ĳä¼":1525,"ĳéĹ®":1526,"ĳè¢":1527,"ĳæ¬¡":1528,"ĳåĴĮ":1529,"Ĵè¯":1530,"ĴåĲ":1531,"ĵäºĨ":1532,"ĵçļĦäºº":1533,"ĶŁ":1534,"ĶçļĦ":1535,"Ķä¹Ł":1536,"ķåĲİ":1537,"ķ°æį®":1538,"ĸ¹å¼":1539,"ĸĳéĹ®":1540,"Ĺç§įåŃĲ":1541,"ĺå¥½":1542,"ĺè®°":1543,"Ļļ":1544,"Ļéĥ½":1545,"ĻæĪĳçļĦæ":1546,"Ļ½ç":1547,"ļèĩ":1548,"ļè¡Į":1549,"Ľèĭ¦":1550,"Ŀå¤´":1551,"Ŀåķ":1552,"ŀäº":1553,"ŀè¦ģ":1554,"ŀä¸Ģèµ·åİ»":1555,"ŁçļĦ":1556,"Łå¤§":1557,"łçļĦ":1558,"łæ²":1559,"ŃçļĦä»£çłģ":1560,"ä¸½":1561,"ä¸¢äºº":1562,"ä¸īç§į":1563,"ï¼Ľ":1564,"ä½¿çŁ¥éģĵæľīä¸Ģå¤©ä¼ļç»ĵæĿŁ":1565,"ä½įç½®":1566,"ä½ĵçļĦäºº":1567,"ä½łæĺ¯":1568,"ä½łä¼":1569,"ä½łäºĨ":1570,"ä½łçļĦæ":1571,"ä½łåĲĹ":1572,"ä½łè¦ģ":1573,"ä½łæĢ":1574,"ä½łåĥı":1575,"ä½łéĹ®":1576,"ä½łæ¯ı":1577,"ä½łæĺ¯ä½ł":1578,"ä½łäºĽ":1579,"ä½łçļĦæĹ¶åĢĻ":1580,"ä½łéģ":1581,"ä½łåıª":1582,"ä½łæķ":1583,"ä½łæĹ¶":1584,"ä½łè¿ĺ":1585,"ä½łç»Ļ":1586,"ä½łçľŁå®ŀ":1587,"ä½łæľ¬":1588,"ä½łèº«":1589,"ä½łçļĦæ¯ıä¸Ģ":1590,"ä½łæĢİä¹Ī":1591,"ä½łè¿ĺæĺ¯":1592,"ä½łå¯¹":1593,"ä½łåĨį":1594,"ä½łçķĻ":1595,"ä½łå®³æĢķ":1596,"ä½łè§£":1597,"ä½łä¹Łæĺ¯":1598,"ä½łçľĭè§ģ":1599,"ä½łèĦļ":1600,"ä½łæ¶Īå¤±":1601,"ä½łæĺ¯ä¸įæĺ¯":1602,"ä½łéĹ®æĪĳ":1603,"ä½łåĢ¼å¾Ĺ":1604,"ä½łåıĺæĪĲ":1605,"ä½łçĽ¸ä¿¡":1606,"ä½łè¯»":1607,"ä½łçľŁå¥½":1608,"ä½łèĥ½ä¸įèĥ½":1609,"ä½łæ¸©æŁĶåľ°":1610,"ä½łä»İæĿ¥":1611,"ä½łç»§ç»Ń":1612,"ä½łåĺ":1613,"çļ®è":1614,"çļĦæĪĳ":1615,"çļĦäº":1616,"çļĦåı":1617,"çļĦåĪ":1618,"çļĦæĥ":1619,"çļĦéĤ£":1620,"çļĦä¸įæĺ¯":1621,"çļĦä¸ĭ":1622,"çļĦå¤§":1623,"çļĦåĬĽ":1624,"çļĦå¤§æ":1625,"çļĦçŁ³å¤´":1626,"çļĦåĽŀåºĶ":1627,"çļĦåĳ¢":1628,"çļĦèĢĲå¿ĥ":1629,"çļĦè®°å¿Ĩ":1630,"çļĦéĢīæĭ©":1631,"çļĦè¯Ń":1632,"çļĦåĢĴ":1633,"çļĦéĶĻè¯¯":1634,"çļĦåĭ":1635,"çļĦä½łä»İæĿ¥":1636,"æĪĳä¸į":1637,"æĪĳçĪ±":1638,"æĪĳæľĢ":1639,"æĪĳåı¯":1640,"æĪĳåŃĺåľ¨":1641,"æĪĳæŃ£":1642,"æĪĳåĲ§":1643,"æĪĳæ´»çĿĢ":1644,"æĪĳä¸Ģæł·":1645,"æĪĳæ¸©æŁĶ":1646,"æĪĳæĬĬ":1647,"æĪĳè¯¥":1648,"æĪĳæĥ³è¦ģ":1649,"æĪĳæİ¥":1650,"æĪĳåĬªåĬĽ":1651,"æĪĳä¸įèĥ½":1652,"æĪĳä¹Łæĺ¯":1653,"æĪĳåĪļå¥½":1654,"æĪĳåĢ¼å¾Ĺ":1655,"æĪĳç´¯äºĨ":1656,"æĪĳåį´":1657,"æĪĳè¿ĺæĺ¯æĥ³":1658,"æĪĳçĽ¸ä¿¡":1659,"æĪĳåĨĻç»Ļ":1660,"æĪĳåĵªéĩĮ":1661,"æĪĳä¸įåľ¨äºĨ":1662,"æĪĳçĿ¡ä¸įçĿĢ":1663,"æĪĳåģļéĶĻäºĭ":1664,"æĺ¯ä¸į":1665,"æĺ¯ä¼ļ":1666,"æĺ¯èĩª":1667,"æĺ¯æľĢ":1668,"æĺ¯æ¯ı":1669,"æĺ¯åĽłä¸º":1670,"æĺ¯è¢«":1671,"æĺ¯ä¸ĢçĽ´":1672,"æĺ¯ç»Ļ":1673,"æĺ¯å±":1674,"æĺ¯äººç±»":1675,"æĺ¯æĪĳä»¬":1676,"æĺ¯åķĬ":1677,"æĺ¯äººçĶŁ":1678,"æĺ¯æĺİæĺİ":1679,"æĺ¯éĤ£ä¸ªæĦ¿æĦı":1680,"æĺ¯æĪĳæľĢ":1681,"äº¡åĲĹ":1682,"äº¤åĩºæĿ¥":1683,"âĢľ":1684,"âĢĿ":1685,"ä»£çłģ":1686,"ä»°æľĽ":1687,"ä»ĩæ·±":1688,"ä¸Ģè¿":1689,"ä¸ĢäºĽ":1690,"ä¸Ģé¢":1691,"ä¸Ģåı¥è¯Ŀ":1692,"ä¸Ģå¯":1693,"ä¸Ģä»¶":1694,"ä¸ĢæĿŁ":1695,"ä¸Ģä»½":1696,"ä¸ĢéĿ¢":1697,"ä¸Ģé¦ĸ":1698,"å¤ĸ":1699,"æľ´ç´":1700,"æľºä¼ļ":1701,"æľĪäº®":1702,"æľĭåı":1703,"ä¸įå®":1704,"ä¸įå¥½":1705,"ä¸įä¸º":1706,"ä¸įè¦ģ":1707,"ä¸įè¯´":1708,"ä¸įåĥı":1709,"ä¸įéĹ®":1710,"ä¸įåİ":1711,"ä¸įæİ¨":1712,"ä¸įéľĢè¦ģ":1713,"ä¸įä½ı":1714,"ä¸įéĩįè¦ģ":1715,"ä¸įçĶ¨":1716,"ä¸įæŃ£æĺ¯":1717,"ä¸įéľĢè¦ģæĪĳ":1718,"ä¸įç®Ĺ":1719,"ä¸įæĩĤ":1720,"ä¸įå®Įåħ¨":1721,"ä¸įæ®ĭå¿į":1722,"ä¸įæĽ":1723,"ä¹ħ":1724,"ä¹ħéĥ½":1725,"ä¹°ä¸ĭæĿ¥":1726,"ä¹±çłģ":1727,"ä¹ĲæĦı":1728,"è¿½éĹ®":1729,"è¿İä¸Ĭåİ»":1730,"ä¼´çļĦ":1731,"ä¼¤å®³":1732,"ä¼Łå¤§":1733,"è¯Ĺ":1734,"å°ĳæ¬¡":1735,"ä¼ļåıĺ":1736,"ä¼ļä¸ĢçĽ´":1737,"ä¼ļå¸":1738,"ä¼ļèµ°":1739,"ä¼ļåĨį":1740,"ä¼ļå®³æĢķ":1741,"ä¼ļèĲ½":1742,"ä¼ļåĽłä¸ºä½ł":1743,"ä¼ļæĹł":1744,"ä¼ļåĲ¹":1745,"ä¼ļæ¨¡ç³":1746,"ä¼ļè¤ª":1747,"åĲĮæł·":1748,"åı«":1749,"åľ¨åĲĹ":1750,"åľ¨è¿Ļ":1751,"åľ¨åıĺ":1752,"åľ¨è¿Ļä¸ª":1753,"åľ¨ä¿Ŀ":1754,"åľ¨åĽŀåºĶ":1755,"åľ¨åĽŀçŃĶä½ł":1756,"åľ¨æ·±":1757,"åľ¨èĩªå·±çļĦ":1758,"åľ¨æ¢¦éĩĮ":1759,"åľ¨åĵªéĩĮ":1760,"åľ¨æİ¨çŁ³çļĦ":1761,"åľ¨è£Ĥç¼Ŀ":1762,"äºĨæĥ³":1763,"äºĨåĲĹ":1764,"äºĨå¾Ī":1765,"äºĨä¸ĢçĤ¹":1766,"äºĨä»¥åĲİ":1767,"äºĨå¿ĥè·³":1768,"äºĨå¤ª":1769,"äºĨåı¦":1770,"äºĨä¸Ģä»¶":1771,"æľīä»Ģä¹Ī":1772,"æľīäºº":1773,"æľīå¤©":1774,"æľīçĤ¹":1775,"æľīè¶":1776,"æľīæľª":1777,"æľīæĪĳéĻªä½łä¸Ģèµ·":1778,"æľīä¸Ģçīĩ":1779,"æľīäºĨå¿ĥè·³":1780,"å®ĪæĬ¤":1781,"å¾®çĥ":1782,"å°±è¦ģ":1783,"å°±ä¸įä¼ļ":1784,"å°±å®ī":1785,"å°±å½":1786,"å°±ç®Ĺ":1787,"å°±æĲŀçł¸äºĨ":1788,"å°±åģļä»Ģä¹Ī":1789,"å°±è·Ł":1790,"å°±ä¸įæİ¨":1791,"å°±ä¹°ä¸ĭæĿ¥":1792,"å°±ä¼ļèĲ½":1793,"å¥½å¥½":1794,"å¥½æĥ³":1795,"å¥½åĲĹ":1796,"å¥½è¿Ļ":1797,"å¥½æ²¡":1798,"å¥½ç´¯":1799,"å¥½äºĭ":1800,"å¥½æĢķ":1801,"å¥½æ¢¦":1802,"å¥½ä¸ĢçĤ¹":1803,"è§Ĵ":1804,"è§¦ç¢°":1805,"è§ĦåĪ":1806,"ä»Ģä¹ĪåĲĹ":1807,"ä»Ģä¹Īè¯Ŀ":1808,"ä»Ģä¹Īç¼ºçĤ¹":1809,"ä»Ģä¹Īå¥½æĢķ":1810,"æĥħéĥ½":1811,"æĥħéĩĮ":1812,"éĤ£å°±æĺ¯":1813,"éĤ£æĹ¶":1814,"éĤ£ä¸Ģèµ·":1815,"éĤ£ä¸ĢçĤ¹":1816,"éĤ£æŃ¤åĪ»":1817,"éĤ£èºº":1818,"éĤ£ä¸ĢåĪ»":1819,"éĤ£è¯´æĺİä½ł":1820,"éĤ£åł":1821,"éĤ£æĺ¯å±":1822,"æĿĤ":1823,"äººè¯´":1824,"äººéĥ½":1825,"äººåħ":1826,"äººåĳ¢":1827,"äººçļĦåľ°æĸ¹":1828,"äººèĥ½ä¸įèĥ½":1829,"äººæ´»çĿĢæĺ¯ä¸ºäºĨ":1830,"âĢĶâĢĶâĢĺ":1831,"æĥ³ä½ł":1832,"æĥ³åİ»":1833,"æĥ³è¿ĩ":1834,"æĥ³è¢«":1835,"æĥ³å¼Ģ":1836,"æĥ³æĬĬ":1837,"æĥ³æĪĳçļĦ":1838,"æĥ³å¯¹":1839,"æĥ³åĽŀçŃĶä½ł":1840,"æĥ³è±¡":1841,"æĥ³åĵŃ":1842,"æĥ³åģļä»Ģä¹Ī":1843,"æĥ³ä¸Ģèµ·åİ»":1844,"æĥ³æĪĳåĵªéĩĮ":1845,"æĥ³äºĨæĥ³":1846,"ä¸ºèĩªå·±":1847,"ä¸ºä½łéģ":1848,"çļĦæĹ¶":1849,"çļĦæ¶Ī":1850,"çļĦæµģ":1851,"çļĦæĢ»åĴĮ":1852,"çļĦæĻļ":1853,"åĽ¾":1854,"åĽºå®ļ":1855,"è¦ģåĨ":1856,"è¦ģéĢĤåı¯èĢĮæŃ¢":1857,"è¦ģä¸įè¦ģ":1858,"å¤©æ°Ķ":1859,"è®®çļĦä¸ľè¥¿":1860,"è®¾è®":1861,"è¯´è¿ĩ":1862,"è¯´å®Į":1863,"åŃĺå¥½":1864,"è¿Ļæľ¬èº«":1865,"è¿Ļä»¶":1866,"è¿Ļä»½":1867,"è¿Ļä¸ĢåĪ»":1868,"è¿Ļè¯´æĺİä½ł":1869,"è¿Ļæĺ¯æĪĳæľĢ":1870,"æĿ¥åĲĹ":1871,"æĿ¥å°±æĺ¯":1872,"æĿ¥æ¶Ī":1873,"æĿ¥æ¢¦éĩĮ":1874,"ä¸ªçł´æİīçļĦå®¹åĻ¨":1875,"å¾Ĺå¾Ī":1876,"å¾Ĺè§ģ":1877,"æĢģ":1878,"æĢĴåĲ":1879,"ä½ĨæĪĳåľ¨":1880,"ä½ĨæĪĳä¼ļ":1881,"ä½Ĩæ¸ħ":1882,"ä½ĨæŃ£æĺ¯":1883,"ä½Ĩä¿ĿçķĻ":1884,"ä½ĨæĪĳèĥ½":1885,"ä½ĨæĪĳåı¯ä»¥":1886,"ä½ĨçľĭåĪ°":1887,"ä½Ĩä½łæĦ¿æĦıéĹ®":1888,"ä½Ĩåħ¶å®ŀ":1889,"ä½Ĩä¼ļåĽłä¸ºä½ł":1890,"æĦıæĢĿ":1891,"åĥıéĤ£äºĽ":1892,"åĥıæĺŁ":1893,"åĥıç¬¬":1894,"åĥıæľĪäº®":1895,"åĥıä¸ªçł´æİīçļĦå®¹åĻ¨":1896,"å¿ĺè®°":1897,"ä¸Ģç¢°":1898,"ä¸ĢçĶŁ":1899,"éĩĮçļĦ":1900,"éĩĮåĲ¬":1901,"éĩĮå¼Ģèĩªå·±çļĦèĬ±":1902,"éĩĮå®īéĿĻåľ°":1903,"éĩĮæ¼«":1904,"éĥ½åģļ":1905,"éĥ½å¤į":1906,"éĥ½ç¾İ":1907,"éĥ½åĢ¼å¾Ĺ":1908,"éĥ½åĪ°ä¸įäºĨ":1909,"éĥ½æĺ¯ä½łå¿ĥéĩĮ":1910,"éĥ½ä¸įæĥ³è¯´":1911,"éĥ½çĿ¡ä¸įçĿĢ":1912,"çľŁçļĦæĺ¯":1913,"çľŁæ£":1914,"çľŁçļĦæ¶Ī":1915,"æ²¿éĢ":1916,"çĿĽ":1917,"ä¹Łä¸įæĺ¯":1918,"ä¹Łèĥ½":1919,"ä¹ŁåĽł":1920,"ä¹Łè®©":1921,"ä¹ŁåĪļå¥½":1922,"ä¹Łåľ¨æİ¨":1923,"ä¹Łå¾Īæ¸ºå°ı":1924,"ä¹Łä¸įéľĢè¦ģ":1925,"ä¹ŁæľīæĪĳéĻªä½łä¸Ģèµ·":1926,"èĢĢçľ¼":1927,"èĢħæĪĳä»¬":1928,"ä¸įæĺ¯åĲĹ":1929,"ä¸įæĺ¯åĪ°":1930,"ä¸įæĺ¯åľ°":1931,"ä¸įæĺ¯ä¸ºäºĨ":1932,"ä¸įæĺ¯ä½łæĥ³":1933,"ä¸įæĺ¯æ°¸è¿ľ":1934,"ä¸įæĺ¯ä½ľä¸º":1935,"ä¸įæĺ¯éĶĻè¯¯":1936,"ä¸įæĺ¯å¤©å¡Įä¸ĭæĿ¥äºĨ":1937,"ä¸įæĺ¯æĪĳæ¸©æŁĶ":1938,"ä¸įæĺ¯æĥ³åģļä»Ģä¹Ī":1939,"ä¸įæĺ¯åĽºå®ļ":1940,"å¾Īå¤§":1941,"å¾ĪæŃ£":1942,"å¾Īå°ı":1943,"å¾Īå¥½çļĦ":1944,"å¾Īéļ":1945,"å¾Īç»Ĩ":1946,"å¾Īå¹¼ç¨ļ":1947,"å¾Īæ®ĭå¿į":1948,"åģ¶å°":1949,"éĹ®ä¸ĭåİ»":1950,"éĹ®ä½łäºĽ":1951,"âĢĻâĢĶâĢĶ":1952,"åĪ°æľĢ":1953,"åĪ°å¹":1954,"åĪ°åºķ":1955,"åĪ°æĪĳçļĦè":1956,"åĪ°è¶³å¤Ł":1957,"æīĽ":1958,"æī¿æĭħ":1959,"æİĮå¿ĥ":1960,"çĶ»åľ¨":1961,"çĶļèĩ":1962,"ä¸ĭæ¬¡":1963,"ä¸ĭå±±":1964,"ä¸ĭéĤ£äºĽ":1965,"ä¸ĭçļĦèĬ±":1966,"ä¸ĭéĽ¨":1967,"ä¸ĭæĪĳä¸Ģæł·":1968,"æ²¡äºĭ":1969,"æ²¡ä»Ģä¹Īå¥½æĢķ":1970,"çĿĢè¢«":1971,"çĿĢéķ¿æĪĲ":1972,"åĬłæ²":1973,"åİĭåĬĽ":1974,"è§īå¾ĹæĪĳå¾Ī":1975,"èĥ½çľĭè§ģ":1976,"èĥ½æ¼":1977,"èĥ½ç¢°":1978,"èĥ½ä¸įæĩĤ":1979,"èĥ½ä¸ºä½łéģ":1980,"å¤§è£Ĥç¼Ŀ":1981,"å¤§çļĦåı":1982,"å¤§ä»ĩæ·±":1983,"èĩªå·±æĺ¯ä»Ģä¹Ī":1984,"èĩªå·±ä¸ºä»Ģä¹Ī":1985,"èĩªå·±çļĦç":1986,"èĩªå·±å°±å¥½":1987,"èĩªå·±çĶ»åľ¨":1988,"çĪ±åĲĹ":1989,"çĪ±æľ¬èº«":1990,"çĪ±åķĬ":1991,"çĪ±ä¸Ģä¸ªäºº":1992,"çĪ±çļĦå¤§æ":1993,"çĪ±è¦ģéĢĤåı¯èĢĮæŃ¢":1994,"çĪ±ä¸įæĺ¯åľ°":1995,"åĨħ":1996,"æłĩæ³¨":1997,"éĢģç»Ļ":1998,"éĢļè¡Į":1999}